node {
  name: "dense_25_input"
  op: "Placeholder"
  attr {
    key: "dtype"
    value {
      type: DT_FLOAT
    }
  }
  attr {
    key: "shape"
    value {
      shape {
        dim {
          size: -1
        }
        dim {
          size: 2
        }
      }
    }
  }
}
node {
  name: "dense_25/kernel"
  op: "Const"
  attr {
    key: "dtype"
    value {
      type: DT_FLOAT
    }
  }
  attr {
    key: "value"
    value {
      tensor {
        dtype: DT_FLOAT
        tensor_shape {
          dim {
            size: 2
          }
          dim {
            size: 64
          }
        }
        tensor_content: ".\257\220\276\263\032\177\276]35>\177\362\210\275\323[G\275\265}+>AuR\276\217\2340\275U\034\177=,\177\205\276=q\222>{i\'\276F\333\017>O\371\220\276\316\357\234>\314\324B>s\266\244=\341\353\374=Pl\n\276>\325\"\276\233\374T>\327\263\254\274@\246q\276P\rJ\275x/\204>G\243\245=G\276\266=\344b`\2762\272\275\275\376m\244>\317{\313\274\217,D\276\234C3\276\311\331\362=A\274\r\276iJ1\276On]>\300\244O\274w,\213\276\232]\202\276\264\215\256\275Fa\222\276\236\206}>\3375\275>\266\325\021\275JnB>\237&\214\276 \233\362=\201\365\223\276\\E\233\275\332\207:=\330ha\276\262\335j\276\346~\230\276\210aH>)L\223>T\370\237\275\242\336S>>\322s>\276F\214>3\365j<\212A\362=\362|\212\275\211[\274>\332\036\205\275\312\3434\276?=9\276$\271&>Y\350\222=l\231\267\275\3702_>\230\337\245>\027\014\240=\310\020T\275\027\007\247=\224=\246=\323\350\341\275\rA\216>vSj\276z=\330=\262\263+>\224\256\004>jF\230>\302\217b\276?\305\245\275Q\005\226>2\034z\276V\365\323\275\365xF>\320\030F>\315</>X\010\250>\272VJ\276\340\222*=\352\253\250>*\277\210\275f\r,\276n@\375=E\317\"\276\311-\271;\357\262\376=\3042\030\276`\004\224>\264\257d\275(\347\227=\252C >S5&\276u\211\355=Z\300]>\372\262W>\374\'\214>\2101\200\276f`+>4\303\253>\276C]>\234\245\021\276H\2554\275\305\023|>\210\330\001>\376N\223\276\005\016\211<\t\2432\276\304\2612\275kc\213>\232\032\351<G\025\\\276\316\255y\276\305\003_\275"
      }
    }
  }
}
node {
  name: "dense_25/bias"
  op: "Const"
  attr {
    key: "dtype"
    value {
      type: DT_FLOAT
    }
  }
  attr {
    key: "value"
    value {
      tensor {
        dtype: DT_FLOAT
        tensor_shape {
          dim {
            size: 64
          }
        }
        tensor_content: "\000\000\000\000\000\000\000\000KD\201;\335:I=\226\227Y=-(\313=\026\365\005<\301\314Y=\276/&=\000\000\000\000\222\302\020\266\377\024\324=\3668\302=\333\227\232\264\036\265F7\366\021\030=\251\221\265\274\364j\230=\377\355F\267\000\000\000\000\232K\361;\027\t\270<\000\000\000\000\000\000\000\000\253R?\273\255\006\2268B\331\246\274\177>U<\000\000\000\000\2446\240<7j\313<\000\000\000\000\000\000\000\000\240\325\010\267\000\000\000\000\207\213\210\274X\226W=\000\000\000\000\253\230\330<\000\000\000\000t\273w=\001\273H=H\262\0357\277(\r=\031\030\236=t\0342\274\215\026l\267\377\375\361=\033\352P<#\204\251=P?\034=\000\000\000\000\000\000\000\000\366\024\355<\324\377\275<B\261 8\345o\323\274I&\0228\202\376\217=\1772J=\r\nY\2755\342\305=\000\000\000\000\005*\270="
      }
    }
  }
}
node {
  name: "dense_25/MatMul/ReadVariableOp"
  op: "Identity"
  input: "dense_25/kernel"
  attr {
    key: "T"
    value {
      type: DT_FLOAT
    }
  }
}
node {
  name: "dense_25/MatMul"
  op: "MatMul"
  input: "dense_25_input"
  input: "dense_25/MatMul/ReadVariableOp"
  attr {
    key: "T"
    value {
      type: DT_FLOAT
    }
  }
  attr {
    key: "transpose_a"
    value {
      b: false
    }
  }
  attr {
    key: "transpose_b"
    value {
      b: false
    }
  }
}
node {
  name: "dense_25/BiasAdd/ReadVariableOp"
  op: "Identity"
  input: "dense_25/bias"
  attr {
    key: "T"
    value {
      type: DT_FLOAT
    }
  }
}
node {
  name: "dense_25/BiasAdd"
  op: "BiasAdd"
  input: "dense_25/MatMul"
  input: "dense_25/BiasAdd/ReadVariableOp"
  attr {
    key: "T"
    value {
      type: DT_FLOAT
    }
  }
  attr {
    key: "data_format"
    value {
      s: "NHWC"
    }
  }
}
node {
  name: "dense_25/Relu"
  op: "Relu"
  input: "dense_25/BiasAdd"
  attr {
    key: "T"
    value {
      type: DT_FLOAT
    }
  }
}
node {
  name: "dense_26/kernel"
  op: "Const"
  attr {
    key: "dtype"
    value {
      type: DT_FLOAT
    }
  }
  attr {
    key: "value"
    value {
      tensor {
        dtype: DT_FLOAT
        tensor_shape {
          dim {
            size: 64
          }
          dim {
            size: 64
          }
        }
        tensor_content: "2E\350=\244m\013\276\223!\r>,\362T\276\366:\270\275f=\377\275bd\346= T\036\274\000\2453<3m:>7\022\036>\307*\n>\000\223\354:D\320\030=\231\'.>8\363H\276\036\301\211=\200Wy<\240\217\025<9\3263>\310\203\003\276\302#\242\2750\320\374\275\200M\322:\0200\031\275\203-\035>\204AT\275\030\245%\276\035\014+>\200\321)\276\000\233\017<+\241A\276\034:\'\276\242U)\276A\331.\276\021\371\315\275q\n2\276\264\000\034\275\032\232\331=\311w+>]x\033>\274\2161=\035\3722>(%)\275\204M\013\276,4\252\275\325\275L\276\344\313\350\275\303\352@\276l{0\276\210\250&\275?7\036>Y\204<>\376\375\246\275\350\007x\2758\262\343\274\276\220\023\276P8y\275\344\215\003=\372\245\352=\234\213y=~\252\235=\330\257\260\274\035\202N>l\277C=*\210\222\275@\200H<\3403\235\274\364\003;=q3/>\002\240\262=\340\321\223\273eS\024>\222\000\275=\320\267\341\274\020\262\004=W\270G>\363\021\010>\333\251S\276>\241-\2761\362@\276\230T3\275\314\020\r\276\323\004D>\260\274\205\275\022\314\322\275[\231\017>R\242\211=\230I\370<\261\361\032>~\370\232=\224/\260\275\210\350\005\276\350\245*\276\017\313\021>\n+\245\275\272\255\020\276Ly\341\275\215\343\r>\302\033\002\276\344\376S\275\230\373%\275\374\254*=\206\373\327=\010F;\275n\226\360=\342\262\376=\255YZ>@\211\007\275J\037\332=\224\346G\276\n\241\245\275C\201\274\275\312c\257\275G\247R\276Mx\005\276r\252\364=\300\224\\\274\030\210 \275\220\020\363<\261K\016>v\225\270\275\020_\337\275o\002/>\024\230>=\200K\365\2720\277y<\026\321\256=\314\tH;\000\306M\276\035?\023\276n\310\232\274\22169\276\'\324\306\274N\202\352=\'\346\223=\276\020F\275\362\3759>{\016\353\275\177\274\253\275\022\234Q\276\320\2142\276\313\334\201\276\37054\276\030\302M=\313\252;>\013\343\t=\2075<\276\233:B\2767Q\030>\332\225\373=\321\\^\276G\264\210>YS2\276F\017\010>\347Y\006\276\200\376\230\275\222I\213\275\317*R>\214\231\310\275\272r\206\276\353\371k=\263\225*>IO\214=\024\305\031\276\354\023\304\274R*\206\276\325\333\213>\314<\016\275+\3244\276xc\026\276\262\376\233<\005\026\310\275\331\310\224\2740X\242\275\323\310P\275\321F\330=\316\300\023>\031\347\005>\356\224\013=\374\213\205=p\350\201<\345\271\241=\331\257\036>Hj\301\275 V\256<\000\330\241=\266%\266\275-J\n>#{6>\332\346<\275c\2256=nXM\275O\031-\276\007\372>\276\361\266j><\254M\275m\314=>~~\t\276Qj7<\214i\321\275\016RO>\017:\353=\365\250\350\275\322\207\353=\210\036\'\276\373\213\214>9DN\275\211\007\224=*k\271\274\250\315\000\275<b\\>\236a\353\275\310(\240\274 /\323\275\250;\264\275\325~\227=\306\314];\tb\021\276o\2064>\272\256q>\356\223\352=`b\207>\223L\334\275{\354\201>\251UD>\354H5>\223=\200=\240\273n\274\034\364\225\275\277\270*>s\017\367<\214\352i=Tr:=X\335W\276\214c\367\2740\366\n<\331\\\221=Z\236S=\340\267p\275\213i\255<\232g\275\275\220-\270<\317\361\025\276l.\274=\ru\342<\211\306\325<\350a%\276\"\255\374=c\365_>\257VI\275\341}\371=\323\355%\275B\237\030\276a\302\232>\372Q\325\274\211\370\026\276#\254|=\377]\203\275o\322\001\276\3733\r>MkV>\007\314%\276\276Q\034>\352\246\260=\336\327S>\215\340`\276\354\364\312=h\236\201\274\273Ps\273\3367]>\206\371\304\275\205\216e>\262z\210>&\355&=B\004;\274\344\0354>(4\340<\244\337@=\277\t$\276\307\341\353=~I\016\275T\336\340\275#\217)>\217\240\227>\314\244I\275\021\206\017>a\355V\276\356\352\t\2766/n>\014w\244=\306\376\"\276\310[\220<\233j.>in^\274\304DT\276\031\315\227=\312\\\230=P\334K\276\032\252\321=h\347\352\274\375v\307\273$\253:\273O\321\222=\365\022\221\273\335J\257\274\375\231I>\375\036\322=B\311\331\275\315\270b\276\360J\337=Oe8\276\303\221k>;\203\356=\275\000I\274\303\272\353\275Wq\250=6%\205>E\005\324=\177u.\276h\035\004>\261\262\265\275\330\232c=\016\204\356\275\272\202\250\275[\324\352=>c9\276\372\240\026>\340\276\255<\267\235\227=0\317\004\275cG\377=t\0232\276s\250\221\274\215\233\177=\000\300\230=\005<\204>\024\267\004>N\000\213\275$EV>\212\033\035>\371\311O\276\350\237\003\275\377\346\225=\264\303\267\275\327\2363>\253\217M>\2144\030>\037\334\201>\370\274C>\030\036\034\276u\034E\276\345YC>\nE>>\305$*>\222T\364\275\030S?\276N\360\314\273\3336\031=%\332\230\275x\352\270\274 \330\t\276\033\372\024\276\361>V\276\260\212\212\275\02027>\274\365\214\276\025\021\365=#\231\212\275D\324\025>\025\204O\276\022 \225\2756\020d>\266\334$>\360\342=\276z3\003=\360\365\342=\373c\377=!\031\355=I\207\310=`\267\n\276\n\221\014\276P *\276\226\037_>m\323\356\274\372}X<;b\267\274[\264\016>2\333\254=\233#3>\234u\212\275\216\207z\276\351\006u=\000u\343=\022ex=\214z\375=lhs\275\377\r\322\275?\352\\>lw\026\274(s\333;\030\004\267=\331L\345=\343\027\254\272\032\201`>4\253^\275\260\316\214\274\213+\334=`D\020>i\200\255=<_\301\275\262\024-\275\357\3306\276\347,\336=\001\361<>\000\274\032\275F\274\374\275p\315\037\276\217\275?>\036J\017\275\376\261\020\276\260f\n\276}\261$>\016\242#>bu!>d\226@=\346aR>\210\262\n;\230\247N\275:>N\275\344\321\317<\023\346H>\302\354\274\275\357&\274<\236\350\366=\355\034K>\247\217\312<\2456\253<\227\323(>\321F\303<\236\371\362:\3104\321\275\263x\013>\316]\206>\214\006\334\275\036\234g>\205[k>\035%\024<\213\tX>\322\365_>\3066f<\312v\271=\022\253\254\275\002%+\276A\315\"\276H\247\362=w\2520>#:\374=\346\"\023\276\304T\266=\211Y\375\275 k\260<\316\r%>\"#v=\274|\020\276\320\341\361\275\220\371\003\274M\020>>\273\355t>\200\256\355<\027\032\312\275\250{\026\275++?>k\253\213=\261\271P\276&\370u<r\344)\276\000:\367;\354GD\274\324\311X\275&\010\314;/\255\361\2747\201\013>\025K\310\275\306\210\035\276\177uW\276Z>\246=\357T\206\276\210\345\021>.\233O\276\214\021\023=7nq>\\U\n\276\236\241D=\342\364\006>(\r\262;\246[\262=\351\345B<S\233\003\276\206\221\306=\211\002\032\276g\337\311;f>h\275\255\343:\275\332\315\200>:\256\001;}\344\255\275\347\252\257<\272)*>\255x\324\275%\364N>\335\242\273;\375w\021\274\231\204\336=$\031*>\33224>,\263E\276\325\030M=E\361\276=\316y\035\276}\335[\274\260\371E>V|F<\370\007+=2\216U\276Xa\007>b\"\272=\332\353\210\275 4\373=Z-\371\275\307\213\300=Pz\017>\350\361*>n?7\276\n/\237\275\357\201r=\356\253\362\275\3336\001>\267\032F\275PM\345\275\223\006\007>L\222\005\276\226\2122=b\342\327=,\255\203=\025\323\366\272\355F;=\353=Y>\241\304\027>/\"?\276\377?\005\276\374\2424>\211r\373\274!\301\335\2755a\261\273\274\255G\275\360e\302<\273n\370=\342\201 \276\2179I\276\222\242\037\275\341\306b\275\376\031\302=\0064\233\275\037UJ>O$=\276\334\307\350=\r[~\270\\\255_<\215\305\"\276I\375i\272\342y\242<\020\365\234\275ow8>ht\223=\347s\253\275\202\327\031\276\022q\217=\004Z^=\356\035\301=u\234>\276>\032\211=}\346\357\2754\262]\276\250iG\275\303\t\030>\254qA\276P_[\276B<\365=\277\256G>\235\257!>\252d$\276\221\314%>\306\242H\276\271\201\326\275\331\372\004>\346z\225=\273\273\362\275\224\274~\275\205\361N>i3A>\266x\035\276\257\250\307\275\326\313\241=\005\346\020\276\252\021\310=\226G\234\275\363\004\001\276\334\250c\275\334\024\232\275\314\002*\276B\235\243=\200\037\263< \230\357\274\327M\037>\016>#\276\344\363{=\243\352#>\215\374O>\244.\004\275\206\336\234=\370^\330<\306k/\276\231\026\\\276\177\250:>*\306\'\276E\272Q>\010|\337\274\333K\304\275B\245\210\275Pt^<\22395\276\275\265,>\3005^;\024U\025\276q\t\336\275w\315G>\001r:>\354[\207\275\000\215\322\273\355\003w:d\300\324<\3749\026\275\326\'E<\276d\311=\215\331\033>\307\322\035=\000Nm={\353\021\276\366\354\272;z\224\320<\345\221#\276k\303\377\275\312\360\013\276\326\3524\276F\264\024\274\272\357\000=\202\241\002>\244+\237=\026\256X\275d\342\272\274\256@\313=>[\026\276<w\323\275\347\210\251\273\017\305U\276H\341\340=$\266)=\235q}>|\354\026\2757\342\363=D\350_\275\256n(=\334!1\276S\036\302\272\360\035\234=\020\020\201\275\'\007$>\035\020j>\320\322I>J4\362\275?\3741> \031\304\274\377\212V=\254\332\272\275V\311\221<\367\364O\276^^\025\276=\301_\276\022\320\233\275xy\'\276sC\233=~d`\276\374\356Q=\024\213\001>\253A\033\276\245J\027<\003\271\236\275\362\361\333<wQH>\317\n(\276\270\353^\276\204\3330>\262\367#\275\020\035:>\221\003%\275\324|\013>\006\333\213\275Z\307\343=\2521\251\275|Ym=\217\031\026\276\'C%\276+\230\"\276i~\231\275\326\000k\276\304\221j\275\206\347\224>\020m\201>\t\244l=\210\036\203\275*S\267\275)P]=y\221\205>\304}h\274\234k\352\275\277uN\276y\2517\276dz\232=$\355T>W\016]\276+\022\033\276\200\220\033=\261\270\021>x\354\201>0O\022\274\231\342\032>X\242\213>\375\0251\275\007[\237=Zh\336\275\364]x\275\374\275\023\276\235\030\305=\267:\020<\206eI\276\203\010\356\273\206-S>`\326\221;s\201]\276Q\337;>\227\033d\272\177-\200=\250\022-\276]\273\'>M\301\025\276\034\277\231>y_\026>L-\277=\206\275\374\2759\332->\337\2667>i\016\244\275\271\207\212;\311/\020>\304HP\275\2733\375\275nt\034>\r\345\357\275d\006\014=\252jt>\337h\277=I\277\347\275\333\215\343<\005B\226\275\361HN>\324\"0<\267\241\026\276\224DQ\275EA=\276me\333\275\211\232P>\020\264?\275\225\214+\276\336\2746\273Ty\201>\014\307\366\274\010\303\016\276]&\204\276\254$\035=\254\315\235\275\r\0053\276\264\254\273\275\205\232\234>\245\276K\275\254M\357=;G\332<z\356\014\276\237\3002\276\245\343\305\275\235\263X>9\361\217>\317\276O>\321\302)>p\313\357\274\005?\245\275\336\260\035\275\010\227\367<\340\363V<\340\0056\276|XA=\356\326\201\276\311\347;>,tf>\331\305\005>\205?_\276/\031L>+\214z\275\005j(>\004[\374\2753nh>T\007K=\332\2753\276!\001\034>\202\365\223\273\002\224w>U\243N>\223\372\\>\2550\247\275\262\334\326=\325\n\022>~\353l>\230va>\020\244e\276Z>\355\275[Z\202=\253}G>\177\356J\276\324\377Z=\334\262x\276\307\263y\276\036\242\034=;%5\276\002\235\266=ZV\206=0S\302=\021|\"\274\233\317\271\275\317\n\204\275\260\355\014\276\023%\231=g<\034\275\361\326\311\275\"\351*\276\312\037\272=\203J\024\276os\021\276\263\333\375=\010r\013<]\370\007>\002\231\270\275\2714\227=\257\276`>\262\313\256=\311\005z\276%\301\224=\323\240I=\271\350\001>\240\021I\276\014\031u=\333\335\017\275\335\273t\275y\210n=\000\255!;)\331\261\275\244\233V>@*\207<\027Yj\275y p>\255\266\220>\272\260\013<\272\233\300=\020\314\227\274\274\331\301\272\331Zc\276\346\2568\276\337h\021\276\315\016\352\274\023y<\276\232\350\223=\026\351:=\254\204\205>\214\245\001\276\325\024\201\275\372\262C\275\333&[>\326\331\350\275\262\364\021\276\261\374*\276tB\271\274\030\006\335\275uO\315=\010\346.\276\373\2743>|\034%>\330;\"\276\275$H=\374>\371\274\220>\320<\353\302\'\276\364\r\205\275\227\335G\276\214\266F\274\017\367T=\344\002\031=\303p8\276O[\016>\2528\376=\305p\">\2521W=\316\220]>\022\215F=\366\315n>b\320\000\275cT\343\275\237\314*\276\322^R\276\324\234k=\347\357\357\274Wr\317=\330\310D\276\332\273s=6+\224\275\366T;=e\014\002>J\025D=\004\004\343\275\231wX>\025\2506>l1\n\2762\0077\276O\025\263;b\215e\2760\222\261=\345\030\033\276\311+x\275FQ\263\275o\305\355\275\353\352\033\2757\355\027>Hwi\276&\250L=\344~[\276\267bU\276\037+8>H\230\343=\351u\014\276p\263\013>+\221\321\275\026\\2>\223\347)>V\353\325\275\275\262\361=\267\3106\276%2\006\276\211\267\344\275\000X\305\274\025\305[>\006\022F>\347\313M\276\304\333\031>\035t\020>\261\370<\276\250\'\264\275>]\215\274\004S\245;{C\t\276\222\366y\275.\233C>\215\005\362=,3\031\276\222D\317=\2678\n>\027\031\020>\223\210D\276h)%=\0220\337\275\257\035\247={x\020>4\217\215=\267\336I\276\352\027\346=\240\250Q>\017\304\375\275\001L\251\275\233\341\'>\316\306\373\275\034I]=\300>\010>5]\240\275\r\007\202=$\355\031=\021\264T\276\266\330\030>\353(\327\275\020uA>\317\236\033=\246y\005<\307HQ>\232\375(>\223\377\000>\372AL\275e\275K\276\234\332\371;\317\003E\273\220c >\262\240\031\276\351\200\216=06A>V\204>;\005\276Z>D\203&>\367\225\026>E\332\331=\200P->\252\343\030\275\242\2128>\225\204\305\275\034^\004\275\216-w=g\334\027\275E\225]=p~8=\177w)\274\375V?\276\006K\025=\335\2202>\231\335t\274\025\240\211\274J\257\323\275\341\tQ>\227\003\206=u_U=r%e\273\204\354\002\276\227\312\316\275cuJ\276\377\372\000>\0223a\274\2723\033>\247\370&\276\323\225,=\334\304o>2\303\350=\213\224\343=l\267}\275\205\223*=\t+\223\275(\033\357\275\265\316\004\276\020\360Z<\237[\276\275\035\374\037\276\003\231>>\353\254C\276\343\013\323\275.7\246=.(Z=0\302/\276t\274\n>G\304\263;P\250\232=\252\010g\276\343);\276L>a=\246\013\277\275\364b|\276\323\360\031\276,k\253<\225\310\371\275z\\\033\276\r \203\275!1\263\275\363\002>\276\036%C\276\016\301==V\242\336\2754K\250\275\200/7>\020Y8\276\324\316H>\014\252\307=\370H\355\275\027\177\005\275R\323\210=\336^\031>W\332*>\037y\000\276\360\375\323=\222\324D>\346G\244\275t]\340=\273\321\202>\223VK=\302iu>>1\207\275\366W\224\272\313f\243\274c\215\016\276\2766I\276\374\200\010=\225\230d\275\374_\017\274\333s\237\274R,Y>\264\035\355\275.\337\252=\201[\r\276\265\261\214\275P\002\363\275mn\365=;\200W>\027\273\"\276\325\354\242=\244rV\275\3739\r<<\277\n>\344\326\004\276WR0\276\344l\r=\177\263}\275Q\210\225\275\372\'\027\276U\231\201\275\005\303\252\275-+\t>\343.*\276\343T\020\274\352\340\n\276~\200\003>\336L\350\2752\273\315=\346\246\300\2757\223\266\274i\004p>\004-\200>M\016+\276\2742B>\203\251\001>\23522>\036d:\276\370J\033>\376\365\036\276\277f\373\275*\352\331=\006\325O>\325OY\276\262&\220=\013\177\023>\336@\375\275\250\tm\272LK1>A\247 >\364^5>0It<D1\341\275\231\352U\274xZC>\021\373\224\275s\023W\276\377wD\276\025A\003\276\350L\332=\206\014\256=\257\001*>\266&\315=\244J\251\275f\301\025\2769\311\020>\211\321\021>BWM>u\2131\276\245\365B>\000\266n:\307\234\"\276\350.\023\276#\230\254\274\021\361/>2\346\223=\034\247R>\214\307m=u\005\203=h\200f=\200\353\252<Y\272\213\275\005^\214=\000\260\2118\307\3373\276d\235\000\276-\032\006>q\334X\276GsJ>X\2044\276\315\010P>\313\332\263=\204}\310=\"U\376\275\007\242\014\276\020\361\211\275T\234W\276@w9\276H\236\024>\261\366\223\274}\003\026>m7\221>#8\231<\266G\312=\360\264\001<\350\346J\275\360\262E\274\000I\261:\226`\364=\347\322\031>;yT>\'\351\344\275\216\352\336=\216\016\332=\220QX\275~\373\330\275\300r\350\273\004\265B\275\000\002\035\273\355\033 >\337;F>\224\016)\276\232\010\243\275\220\020\373\275\177\030;>^\266\204\275\3635B\276\375J/>\271\016\361\275\2145S=@\351\246\273\244\2465\275\303\210\363\275\300I\322<\306$\035\276\034YZ=B\022\227=t\\>=\334zU\275\246%\341=\2602\005<\240T\024\274\201F\303\275\r\317\004>\361\351\002>\250\262\260\274zl\222=\322z\246=\244\355n=\244\375~=\246Y\002\276\367\301\037>\245\354\005>\344\3059\275~\003E\276\365\356\305\2750\201\301<?\221\020>DX\030=~F\362=b\365\356=2\'\022\276\014]\002\275\351\nC\276\362K\202=f\225\"\276\277U >I:b>\343\007\017\276\216\242\277\275\225N\313\275h\342\365\274Pp\000\276\300\366\'>\241\227\353\275\004\200\210>`\252\242=\375\316\036\276\324\031\"=\274[{=0\\\014\276Me\343;\314K\320=9G$>\202<\356\2755\372h\276\214ya\276^\231`\276\256H\354\275\260\240W\274\225\276\250\275\033e\">\320\305\307\275A\212\025\276]\376\246\275\320CI\274\243\222:>\344^X\275\022\331\304=:\375\177\2735\226\253=\202\003&\276\3567|>xp\'\275\320\313\335\275\317\3145>\311\322*>\020\002\350<\332l\263=\346H\244\275\301t\023\276\022\310\252=9\007e\274\374Zp\276\237uq\275\346\227\374\275-\201;>f\033\326=\372\330/\275\236\336\217=\260\022g\276R\032\223\275\n\301\033=\014\2327>4J\035>gB\013\276\031\206\320\275\233\353\367\274R(\005>\255<`\276\374Bb>1\177,\276\230\365\010=%\007i\275\224N\014>0S\244<\3512\335\275\010\306\225\275>}\301<\277Xw=\327HW=\250\333G\276\273X\020>\210j\216\275\342\230\263\273\301\234\036\274\365\363\026\276\261\370\225\274\030\307J\275\270h\3129\213}>\276\354$\r=c\237\375\275\354G}\275^V\016>\265p\226<\251\355A<\222@\273=#\366\236\2752J\244<k\242\363\275\300\276\332;\214E\'\275\352\177\357\275X\370]\275!\337P\276E\367\362\275\236\033\325=TZ\333\275\276\357\262=\272\346\001>\177\036\271\275\362\212\231\275D\030\032\276\226\034\370\274 *[\274|B\027=\000\272T>\234Q\340=<\\\265\275df*\276\226M\220\275\235\222-\276\026\276\024>Ya\\\276\200\233Y>zq\274\275~\204\245=\252\222\223\274!\030\010\274\204T\227<\273l2>\311j\310==\2676>M\270\375=3\254V>I\231\\\276D]\034=\023\234;>\374\376A\2756UP\276\372\236\257=\372:\245\275\362H\225\275hZ\320<\356\242\310=\204\2328=\324\262%=\007\'\000>p\3229\276&\231\307=\271\203\037>\230\366\354\274\307\2514>\214t-=fm7\276NB\223=%\343F>\340\004z\274 m\242<\316\031\250=z\244\224\275@\207(<\365\203Q>4{d=\244;I\276YbT\276\354\243\017\275\374\252\020\275O}\005>\224\351E=\020\251#\275@X\240;\030\304a\275\333UQ\276No\321=O,K\276\314sW\275\0059O>k\242(>i\212\343\275\014\3665\275\260s\266<\340\210c<~\344\330=V\342\205\275\233xB>\210X\375\274\0102\334<& \344=\231\341O\276\212\275\204\275\334r.=l\267\001=\316\331\352=\304\246\034\275C.:>lnU\276\'\263\013>.\277\234=(\250\364<#\026M>\250\025j\275\204\365\023=\266\217\222\275b\316\260\275\317&\t>\235\3363>zU\225=\206\265Y\276!\020+\276p\036\350<:\201\\\276U\353\034>\000\025C\273\000\210\001=`d\303;\203\035\001>0\037\314\275\024\360\027=}\320K\276bY\221=\231?8>(f\267\275\254M\211\275\002M\363=.%\305=\003\001J>\276@4\276\273\3667\276\210\362\020\275\375\222\035>\025\2139>I\275<>\344\263,\275\351#->2\215N\276\275W\036>\321!\t>\024\266\020=\010\021\214<`c\240\275\202\373\020\276 \264\210;\351\367?>~c\020\276N\035\212=I(]>1\0351\276\370\317R\276\236\265\235\2752P\266=\025\256\021>\342\334\220=\032\007\006\276\2239T>\\\323\252\275\263\231\010\276\265\336\320\275\223\262\016\276\002\315,\276\373\\$>\354;\n=\300\367\"><Nd>\262\257g\273O\237\n\276p\306V\274\006\213+>\023F\311=\306\301/>f\275\\\275c\371\333\274<\260\300=\361\030\364\275s\315=\276\005\255>=\031KD\274\236[\245\275\245\324\022\276\257\377\352\274\213m0=k\006<\276^\016\374<ng\342=Q\344\375\275ko9>\274\317\335=\311\304\325=>\343\300\275q\tP\274SX\355=\225I^\276V\202\020>(^\320\275\006\3675\276\323 \354\274\241\016\243\275\321\273\212\275=x\036>\227\225\224==O\323=\351[K=a\216\236=\217CL\276\313\271*\276,mO\276\232X/\276\300\272\327\275\300\361\221=\243~\">\356\254\351\274^0\245=tI>\276\340\275Q\276B\030k\276Ya4\276\004\004\224=\274\003\016>\374\273<\275\003MK\276{Q\337\275%\240\001\276Y\'\007>\227\316\264=\237\033\254\275\264\000-\276\303\372.>\010=.\276\310:%>N\254R>\354h\356\275\035\375)>\211/p\275m{+>\316>;\276\2721\241=\336$\312\275\350\233->\340\366C\274\024\330\017>^\024\027\276\310\206+\276\021\300t=\t>|\276FZ\205;\"U\333\275m\016\024>Z\033\227=;m]\276\372\032Z>\031[\357=wp]\276\264z\334=<\370J\276\341S\203<\276\350\373\275qE\267\275\360B\035\2762\350\347<\332e\273=5\202b\276*\307\340=\374YC\275\346\211F>\225\273\023\275\027?k\276\021\2517=\327\023S>\'U(\276\243\2141>Ra\217\275\355\231\234\275M\2665\2764MN>\354J\226\275\275`\342=\373\272#\276\177@\356<\215\316\013\276\337%(\276\375\377\362=^G\344=i\025\210\275\337\202K\275\371\233\233<\352\330->\304\311M>;\003O=\321\215\202>\000C[=\352\313:\276\244\030\260=\374\r\246\273\264\025k=V \336=R\346\003>eJ\367<\\\356M=x2\005\276\3029\275\2759\356\233=\272\200\205=\250\332\241\275T>\017>Qs\374=\323,\314=\207g\215<\356\341B\2761I.\273t\373N\276?F(>r\007K\276\3263\242=>\177\024\272\233\267\367=/V$\276\205C\354=.[\334\275\017\036\271\275(q\251<hi\306< (<\274j\021\302\275\227\323\206\276{\336\241=\026\t\372\275\300S\316\2734A\310<p\346\335=\240\233/\276\360\373\r\276\261\231 >\212_\300=\332\264O\276\025\235]>\303\260M\276\330\277L\275\032\201@>\243\013V\276W\315\357=d\211\r\276\340\342\\>\366e\013>\271,+>\027\270\246<\001\322(\275H\304\332\275\0379&>\344\007#>\352~\026<\336*\364\273@\235L\275\017\221m>nl\214\275\001\342o>?\341\013\276i\253\320\275\305H\301\275\326\270\'\276]Z\004>WTV>\351$Z\276,m\023\276\266\261J>\233\217\006>lM\"\276}\261\035>O\374\374\275~\0271=\264\005o=\362\370A>\234O->\000bR\276\301\277\354={\233}>\351L(>\360c:\275\204\303M\276\270\253=>$fR\276 s\314=\331M\317\273\251\273T>\250?\245\275VW\250\275*\243\340=4\360\356\275A\362\t<&^u\275R\335j> G\370<\271\006f\275K\250\271\2753\032\032\276\372\363\274\275\000\377(:M\321\027>,bs>e\200\367\275Zm\267\272\033\257I>\326Q\235\275o=\270\274^\333\251=\017\2465\276\021\212\206\274\343\341{\275\245\2111\276\240\204\204>\325L\355\275<@->\220\353&\276\345\246q\276\237~\036\274\3776\272=\240\357X>:\226\257\275\277^\r\276\316f\273\275\022\271\014\276\310\205\276\274P\005\013\276R\035\035\276\331\265\326\275zj\351=\376E\003\276ZL\225=\243\')\276@==<\364Br\275]\322H>\216\324\272\275\004\010\027\2762\330\337\275I\216\351\275M\3628>\253;)>\224\301\200\275\244\335R=\324\020j=\231\311;>\241\222R\276b\345%\276\332\240\201\275;\'&\276\200\024A; \264\n<F\212\250=\000\\\226<\337\351M\276\217F\010>\316\034\306=4\201\005\275\034\233k=\254\262\013=:\313 \276$I\037=\312\'A\276\0042~=\000\270\247\275\344\216g=\274\330\000\275\370^\335\274\216\305[\276\346R\266=\214\304#\276Bz\323=7\326D\276m\201B>M\354 \276\221L,\276Z\361\263=\221\323W>\000^\215<\250\207\234\274p$?\276\006\243\241=\314\355\212\275\250\017\315\274\005\275?\276Gm\336\275\006\214\303=\2010\342\274\336Jb\275@^(\276C\036\013>\264\276U\276\031H\207\275\346c%>\377C$=i\310`>\357\371\002>~\003\010>lK\322\275\014\323m\275J\367==7\356Z\275\242M\003=\034W\224\275\310\314=\276\252\010\362=\nE >@H\363\275\330n\027\276\252\016\035\276>Q\213</j\023>~\231\311\275\2015\367\275\370{\261\274(\320J>\267\035K\276\303I\216<\214\371h=\036:\026\276/f6\276\355a\037\275k\300\231\275\020<l\275\360>\001\276\262\2305>\320\342.>)B\020<\246\254\371=Ux\301\275\322\353<\276@\321S;\232\367\036\275\251B\023\276\241\272\217\270\203\3677\2752Ld=\200v\016<B\353\252\275\0001\371=\207\214\027\276\251\321\322\274\300T\017>\346\316[>\357\326\306=\260[\227\275\355\264\216=\334\343\304=\271\325\304\275D\267\017\276n\254\004>V\377\346=^\214\222;\226\376\010>\213\240\254=\014\265u=\206\374\026\2769C:\276[ \253\274]Z\030\276\034\035O>@\302\254<_\235\266\274)L]>\252o=\276<\253\227\273)\2752\275t\3164=\020v\013\276\223O\n>u\177\317\274\250\340\022>(aE\276\034G\n=\017\356\344<0-\000\276\353\220\246=\337\350\201\276Q)\353;)\016\334\274\271\246\221<bZ\342=\363vS\276\237\2737>\370\027P>\277\026J>\302\237\302=&\221\277\275\316\311\002>w\024b=\321?R\276\377\277\"\276\200\345\177\273?\0353\276\370\223\303=\353[\020>\355\035\333=|\2514>\242H\n>\007\2058\276\364\306J>-\240@>Z\266\321=\374T>=\327\233\013>\314@\303=\234C\200\276\351\357K\275\232\226 \276\334N\324\274[\331\036=p\230\210\275\001/ \275l\016\335<(s\362=\363x@> \035\n\276\177\000B>t\034w=b<\231\275\n\235\255=\306\361\216=\314\277@\275\340y?\274D_\034\276\320h\201\274\300:\020\274\267<(>(\274\016\276p\244W\276$\206&=\314\0209\276\305\377A\276\260<\260\274\306\265\270=v\221\341=\313Z(>2\247\246\275\030\330n\275\300=\016;\360j\325<t=\025=\375\312J>PL\247<2:\274=\3109@\276\347\317Z>\322\240\257=@lB\273.(\255=\372\242\326=^_\300=q\\*>\322=\006\276\000\373e;^\234\211\275\311o0>\235\310\362\275\276n\235=\000\243\033<\303\034V>!3P>\201&/\276\025\027\010>\026@\272\275\224db\275H\324\333<\313\033#\276\362\023\335=ufG>|\340q\275\344A\261\275\300\235\235<<PP=C\367\277\275y&\026>D\332\327\275X\276\025\276t4\364\275\206\352\366=6rM\276\3468\004\276El+>\300M\336\275n\266\313=\000\"\"\275\211\3558\276\254T\002\276\226\302\307=\240v\337\273\341F+>\341M[>\27180>-\216G\276D\355\004\276\326g\220=S\313B>4\014\t=\353\226B\276\023\334\010>\354\271\r\27559\013>o\030\350\275&\325\320=P\343\'\274\"\260\010\276\000uq<\350\363\010=\370\212\346\274n8&\276\200[\342\273\202\226 \276\2426\211=\312\263\222=j\030\000\276RP\304=P\373@\274\352\004\333=\360\004\231<$@.=\311\336E\276\254\177\'=\3211F>\002D\324=z\204\235=f\004\213=a\376+>I\237X>{\2402\276\201\327D>e\334\276\275\234\324x=\343\221\322\275b\271\206\275C\2612>\210;\312<\236\013\346=\310\025\342<+\014P>\340@\264<H\371J\276\242\211&\276Q{U>\322\222?>d\227K>\022,f=\"\346\220\275\273\r\013\276\356\201$\276[\231\000\276\347S5\275V\036\264\274\014\002\321\2756I8>rs\312=\256\255\305=\023X.=\034\300\034\276\2362\303=\2621\205\275\364\272:\276\201\0276>y~5\2762\025\031\275p \310<|\262Z=\313(\332;`t\332=\343\036?\276+%\246<\3545K>\010m\312\275\210\263#\276\014\325\211=\351jY\276\311o\361<\242\276,=\245q\377=\326\315\256\275\371\0034\276\\W\022\276m&>\276[\007\270=J&\001>\315\030J>s\212\234<\235\3142=\270\340\362<\022\301\212=#\n\264={9\016>\203{^\276\347\337L>f\371\213\275\037Ca<\021^ \2761BQ\276{\242W\2759\335\020=\277\200\004\276R\246\345=\2054\324\272b\212\275=_\321\t>x_\027\276\305\330%>\201\372\037\275t\250\177=\336\250\200=\326X\247=\266\016\212=3\2176>\372d\217\275\376\002\330=\225\206\001>\366\256\263=-\2026>~+\320=\206]\365\275\372\002W\276\244\315\032\275&\347\327=,\004!\276w\326\004>\010\364\036\276\277\005\360\275\036-\005\276]\242\001>|:&\275\260\303=\275\374\344W\276X\266\220\275\343\017\327\275a\236V>P\021\355<n\216Q\276\203sP\276\351\214!>\215}U\276\311N&>\300\355\221;\216\n\266\275\320\263z<\206\002\360=\370?\346\274?\313\026>\177\323\026>\010\002E\276\227\363,\276WjQ\276\253)\377\275\237>\001\276,\2244\275\250\345A\275T\024$\276iBQ\276R\311\227=\346\304\330=\n\331\204=\026\233\031\276$\036G\275\240o\350<J\307\325=\037\210\037>\035~V>6\177\322=\270\027J\276\020\360p\274\006l\026\276\270\320\221<\354\367\333\275\002\240\356\275\364K\344\2754\254j<\274V\312<u\037\t>&\263\207\275\262\020 \276L\334b=\253\224\352=\213\246\035\276\300\373\226\2742\353\252\275j\331\375=\251)\007\276U\230)\276\007O\333<\245\036\327\275l\373\246\2757\245\004\276i\257\036>\217\246\025\276h\316\030\276\004\333_\275C2\n>\274\322z\275\243/\031\274\023\2044>F\331\353\275\217\030\267\275A8\360=\205\373W>{\361B>\220D\330\274\335I!>YUY\276\233\351w=\223\211:\276\257;A>P)\230=\205\327\332=e %\276\n\036\206\275\363\003D>\247;\257=&\'\212=\274\354\226\274&P\021\276\267QE>\234Jt=\304i\251=\206=\025\276\216\217\344\275\212tV>\233\345G>X:6\276\014\237\231=~\246\243\275\372\221D\2767`\303\275\303\343:=\270#g\276(\214\345\274f\207\">/+\310=4\036\027>\231\250\n>\024\271\344=\205P\301\275\344=|\275\004\r2\276\343\277b\276s\n{<N\332j>\275\007j\276\020\3129\275\3423\353<Z\237\335\275DIS\276v\343>\275r\340\234\274\333G2>\325,\365\275,\'G\275\257\243\020\276\251\364\213=\307F%>\326\342\362=bF\325=.\013V>\035\273\t\276\324<\002>\301p\333=\337\274\013\276\221#P\276\257\277O>\356l\312=_\2462\274F\240}\275j\306\"\276)\000{>b\225\330=\336\242\004>\230.\367\2757\024/\275\370=\376=\236\023\223\275G\220\002>\211\321 >\020\030\230\274\351\213\002>\003\316\240=\372\205\341\275\320g\266=w\250\237=\242\274\304=\t{x\274a\322\356<\275P\273\273M\200\357=x\361\307<\032\321b>^o^=v\203\321=\266\265&\276\035#\277=\356\260\020\276`\270(>\330\002F\276\376[F\276\344\367\023\275.\327#\276\233U\323\275\356=7\276\301\000G>\311\005\022>\254|\177\275\223XG\276d\342\022\275\252E\211=-\341D\276\263a\027>Ht\214\274\n\307\265\275\000\2140:@k+<\3556\\\276\236\177\241=E\320P>\221I9>\3571U\276\301(V\276\016>\014\276\252m\255=x\375Q\276}\245\">\264\3164\276f$\335=r/\312=\316 \347=\024\241^\275\305\367S>\210\227\017\276\024%\246\275gR\333\275\354\326z\275\240\302\302\275\377<\033>K\032\322\275|!\372\275\370\226\365\274\002\315\303=\350V\262\274j\340P\276\362\313:\276l\326#=`9\362<\300O\206\275\200~\244\273\240M\177<\257\254\362\275\"k\031\276@\332\243<\224\200\007\276Vl\353=\356\363\217=\3408\327\274M/*>\270\311E\276\264\026k=\211\324P>\333\3013>\261\322\031>\244A\004>bNO=\202\322\277=\006\205\035>\2026\245=;\354[\2762-\014\276\253\020\022=v\030a=1\350\262;\304\223\357\275@\333y\276xl5\276\342\273\003\276R8@>\323\221A>h\\\027\276f]C>n\000N\271\357\232\021\276\241\316\357\275\nV\027\276\260\036\022<\2016\214=\363\023b>%?Y=x\353\211=u\206\243\275\323\033?>t\030\007>Y\"/>C\177\025>y\210\240\273\267\262\004\276\321\221\000>P(6:\224\356\261\2757\273 \275\232\326\016>\253\270\246\275\370O=>\214\223P\275\273\221}=\324\354m>\260\002I\276*[c=\366\274b>\246\347\201>\305\316\033>\2433&>M\007/\276\347\004C\275\276\355\244\274v\334\253=\223\217\334<\204\324r\276?\035\232\274)Q\353\275\342\024\370=M9\'\276p\357l\276u\365\035>\301\r\213:(\"?=\247\027W>\341\263\273\275Cp1>\353\007\007\276(\336b\275u\255[\276\372!\363\275d\001}==D\016>0Hl<\255\227\354\275\214\376!\276\336\227\221=\311k\'\276{>[>F\360\254\275\264\254C= \351\310<\006U\256=\320?\024\274\001^0>\220&\321\274\227S\374\275~@\355=\266\332\237=\330\300\343<@b\013\276\21326\276ph\025<^\034\205=\364y4=\300\005Q<\340\237w\275(\370\306\274.d\345=!$R>V\'\322=\312\276\223=\264\221V\276\310W\233\275a\201R>\315\320,>\204I%=\354n\003=,\352z=\306C\035\276J\261G\276Q\240*>\312\364R\276k\\?>\035M\032>\000\005\033:>\221\224=8\r\265\275S3B>|X\221\275^\316\367=y\334E\276\'9D>\017\310V>\345f#\276\346 \270\275./\332=I\202H>\357bL>\334[j=\t\030\313=jr%>\352\331\340=\340\305A\275\265\2141\276\037\371\013>\310-G\276\032p\007\276\237-\027\276\200\017\237\274\2069\350=c\025w>\n%\310\273\344\203H>\302\276\256\274\252\023\270\275-t\023\276\315\337i\274\351\370X>\022\352J\276z\304\020\276\037\227m\276\212\017\035\276\354\220Y>n\213x\276\265w4\275\210S\n>t\234:=}LY\275\224\020h=\235Q\355=\261\354h>\374\362\002\276h\377c\275@o%\273\302\253\351=o\342}\276\360Z\231=\222\266\371=\245\262J>\342\326\316=\271\327\363\275ny\255\275L\375;:\265\374\007>?\221\273;\007\3054>\030I\005=~\347\350=&\303\023\275\316B\267<\177U\312=(\3406>\177O\234\276\377\317\352\275\225\243\235>:\246\030\275\300\336\n>\347+,\276\rFk>\227\266\022>\023\3434>\304\r\277=G\312\315\275|\375\325=+\321\262\274\237\247$\276\303+P>\320c?\275\213\2774\276\330\027j=e)\021>2\345\377\275\276\213O\276\264\022!\276\363j\377=\254\234\007>0\320\036\273Zl\377\275=H?>\010\205\255\275\271\242_=\242\231\177\275\210\336\245\274\274\r\273\275\214T\365\274\367\027Q>\270\3135>\024\3110\276\"Ns>\005\306\257\274\252\223\301=\361\356\226>q\274\036>\037&\227\274<&5>\240\342,\276rm\321\275@%f\274\031\216\305\275fm\207\276\233\215\235;\307\303\314\275b\0332\276\377\344\306=F\265\201\275Q\245\371\275f\215s\276\234\223\035\276G\306\206>\246QR>\346\357.\276\\\247\315\275W]\010\276\031\373\201=?\331h\276\241\251\360=\027\374}=K\327\264\275\277\372\300\274%\377\373\275\2676\r\276Ln/\276[\361a\275\343Fx>Ual>\361\336M=Xa*\276m\335*\276\270\257J=1v9\276\026\362\340=%\001\367=\267\r/\276R\311n\2752\236D\276\241\0135>\004Q=>P\355\t\275\337\3720>\265e>\276\250\256[=\326?\275=\210\2615\276L~\375=\220\222\376=\271\017.>\341o#\276<\253W=\226n\343\275\000\204\024>\336^+\276K7\223>\245\351\326\274\237\251\331<\344`P=\327\323\036>\367\355(>\216\224=\276\274F\017>N\363\352=\036/=\275\253\200[\276\311d\001>&\364\263<\360-L\275P<1\275<\005C\275\306?L\276\340\3123\276\220 \016<z\236\374\275\333\000\r=%N\204<\233\010\326\275\337u\275\2745]6>S\350f\275\372\276\253\275|=%\276\177|&>N\004\177>N\346\032\276\002_$\276\244\330\002=56\031>f>\026>\333\022\005\276\300\250x\276\244\370\267;\003z\005\275\332=n>\256<\232\275n.>\276pV\007<\267\260\271<{1\370\275!\311S\275ZRJ>\270A\311\275\260\254\024>x\333\017>\034;g\275\265W0\276\023\240$>a<\320=\357\204\272\275\340\033}\275\255\351\337\274\222\0009> \204*\276-fJ>\242F\361=\214\236,<\316\027\305\275\230\210\333\275(\021\244\273~\306\250;\271gN>\014+\205<A-\033\275\352\241\214=\267\324`\275\033b\353\275\2264\327=\362\005\n>}P)>\361\247\232\2751\022\226\275e\327\006>\302\214\235\275\374\203Q\275\177\277\332=w\343\337=3w\366\275\360\2135>TN\374;\274\030Q\276\006\031\224=\021t\023\276(\006$\275l\331)9Kq\276=\226\005v\275\374\004L\275e\230j>]\325,\276\246\216D\276\031\000\235=\376\016v=\'H\217=k\030\224\274\177\016\021>i\375p=\030\316\247\273[Hm\274d!\020\274?\206\023>\354\372\004\275|\205?=\002Z\234=\267\272\205=\213%\032\276\357\244\026>\241\271\021>\274\204\325\275\317/\354\275D5\335=\300=\326=>n\327\275;\360\256=\313D`\273hBB>\000\336\223;\234\250z<\025\372\357\275:R<\276\324\253\336\275Y\036\036\276\026\255K\275\307\356\272=\231\234\202=\222\352\002>\321:\033\276\340\323\304=\342\322\211=\350\210\221\275S\314\'\275\214\233\207\275\031;G>+\006D>\205\327T=d\256t=\017\355\235\275\021\302\312\275*\326\270=\342\333\230\275\323S8>\354\212\027\276<\361\'\276\341-\026>\337E\020\273\213\322\206>\373g\307=\304<\205\275\327/\263=){\205>\334P\006\276\031\246@>\273T\177\275\260\r\213\274Djm>\272\237\265=}\345K=\260\013(>\220\372\025\276\256.\221>\275h\211\275\340\330*\276\237\314\362;\240\342\022\276\216\242N>0\307m\274e\333%>\253o\272<\007%\026\275\257\372#=+\340\033>Sq\031\276\245\247#>P\305\323<3\020\361\275Q\010\023>\347-\353=L\310m>\304\360\017\276\244oS\276\337\241T\275>\311\002>\"P0\276RW\330=\362\027H\275\215f\237\273\021t\032>_\307J>0\336\251=;S\234\275\nZ\327=\017\\\026>r:M\276\210H<>\265\013\226\276\207p3\276\r\274\335\275\207\t\002>?=\273\274EnG;\020\017S\276\024\310L>\2007\035\276\356\2061\276\341\352\302\275$qH\275`oP>_\016;\276\375K\">\335s\363<\007S\004>\032@Z\276\350\321\014=\315\351\377\275\"\210.\276I\275\001>\376\014\034\2757\273\364\275jD\035\276KO\323=\016k\377\275\203\265^\275\305\363\242=\22557>\370\003x;\346y\355\274\276\221\211\275?;\235<\255\304\010>\215$W>\350\327\020\276d2<=\307\000\215=g\025;\276e\375\005>\354 \261\275\335\227q\276v*\001\276\351\2042=F><\276b\265m>X<\351\275&\306B>\030\227)>\250\361t\274\\\"\034>\014\345T=\300\265\340\273\031\303\000\276{E\260=M\307h\276\231\262\350<\255\363W>\256\366\243= i\263\274r\313S\274m\nN\276\2140z\276\370\365\202\276\331\255\205\275\277\347\206<\317\310T>h\300.>J\033\034\276!\227O>\215\022\226\274\311\002\006>\026w9\276\315\371\222= R\267<\220Pj\276\206\310\346\275\371\307Y>z\336\006\276\270m-\275\252\342\332=k\216T>o\276\n>\t\005\234\275~\317\203>@k\007>\324\331p\276\324\274\300\274`T\335=\365l1>\364D-\276Rk\245\274R\321\216\275zq\226\275(\316\020\276h1\246\274\306\004\020>\013\260\215\2746\236\240=^?S>\365\217D>a\014\262\275\'I\r>q\t\014=\344\036=>\365\326\177\276\000\004\267:M\270x>\t\366\342=\2363w\274\230^/>\017\\\206>\001\245\274<\263\302\233\272\350\346\262=~a\212=\034\204Z=\0246\321=[U\236=s\363\330\275\243\330<>\337\274\230\274\206\361\314=N[ >\373\306\001>\333\025W\276v\200e\275\001\007\202>\024\366\227\275\236!\034=\260\361\000\275\351%\007>e\366\232\275\326\325$>\322\257\331=\202\322\210=w%,>\217\326\362\275c\275\016\276if>=\2544\304\275\215\214\336=\026t\202>\201\207\215=6\300\242\275fk\004>\234OC>E\321\204=+\302\025>zM\221>\251~\234<\0004X>\234\020+=p\214\025=\230\017\r\274\326\244u\276\377Z\025\276\010\244I>\247z\333=\034\216\017\276\3228S\275\002\023\315\274\310\254[\276\022S\224=\337\324U\276\3100\007>_\337I\275\364\031\023>>c\016>\032\352\322\275\270y\223\274\235\263\236=N\245\032\276\345\341,\276\203\2519\275\014\240+>V\001Q\276u\213\220=\327c\311\275\273\265\004>J3\367=Z\275\302=#\203\370;\037\303D>\354\0358\276\212>\031>\302b\236\275\375\260\271<Z\377.\275}\016L\276\032\023\377\274b\036\003>3\200X\276\242\252\037>\314X\035=\222\232\221\275\270Y\014\276\035\322\027\276\373\273U<\034\202\354\275\310J\234=\361\t\212>\220oA<zl\016\276P\233\314\275Vu\326=\007\r\323=\201\362\317\2756I\275=\020}o>\rn\"\276\013\220\307=8\303\214\275B\344\354=\336\204d\276\014J\212>C\nK>\264\261K>1TG\276M\214p>\3733\266=\014\257\315=O\255?\276A);\276\222E\275\275\360\3549=\310\254\003\276c\020\031\276\340\024\267\273;\252\002>\367\242\241;\2578[=\005\371\005\275\211P\232=T\177T=\3608\001\275J\222\215>\354\034\223=\000\275>\275\360\234\320=\255&)>3\353\260<\346\253\362\274U\354R\276\"\252#\276\241H\262=9\310\363\275y\177>\276\363\037z\276\264fr=\373\3732>\t@\032\274J\224\021>w\240[>\223s\001\274\334\233\212=)\005\013\276S\214\230\275\307\2056>\340|Z\2764\026\364\275\001n\312=N\360\014\275p\2407\276\2155\r=\333\226\007\276@\347z\273\226z >\206\222\t>2\244\330\275Z\347\356=}vj=\3249\272\275\275x\n>3\007\346\275\3057>\276\375\335p>3\211\\\276\321\232\000>9\202&<\034\370p\2768-4\276\251\317O>\232\340.>\323\214\206>\334\361\246\274\025W]>\3307k>\251\214\016=.N\362=\2435%>\022\255`\274A\223[\276yT\363=^\002R>\231#\367\272\262\032\263=\232\244\311=\336u\271=\351 b=S\270\205>\177u\225=\246\332T>5\343%\2763z9>\276\245\231\275z\030\303\275\200z\325;\220\311A\275\376x)>\023*A\275\256\315\254=\001\327y\275\212\330\020>ar[>\226\224o;<Y@\276\250\316\255\275@p\233=\257\271\261\275\275:\r>c\333\357\275d\2363\276\"vK>*\306\272\275x\265\331\275P\340\320=@\t#\274-\t\347=i\341\227\275\274\307Y\275x7g=\216\355M>\221hr>:y6>\216#;\276\\\313h=\rW\225=B\266C>2\213\304=#\303\031\275\364\210\256\274V\250\327=\273\273\001\276\357\003\245\275\252\226\010\276\215\367$\275\017\030\236;\354a<>:]#\275\212\003\345=JN\327=\353}H>\233\220[>`\261M\275K@R>Y\312?>\217=)\2760\366K\276\260\250&\2751\225\301\275n\254\213=\352\025\003\276gX!>\247Y9\276\024\231\"\275\320Q\254<#\243\024>\177>F\276u}V>\212i\232\275#\332L>\260y0\276\310G\021\275k%&>Lef=\356\362\367=\342b\345\275\247YA>\014K2=\240;=\275\334\024m=\205\276\321\275%\364\'\276u\344O>\0131<>\240%\252\274\220\256\261\274\233\262@\276*<)\276\234\246\\=,\310p\275\236w\251=`@\327;\224\234M\276a\247\020>\220\321\262\274\006\312\235\275\213~\006>L\021\030=\322.\343=\200\233g\2738L\242<\367\373\032>\2425\247\275\310\211Q\275<Ma\275Q\257C>(\350V\275O\3676\276~f\312=t\224\250\275\324\333Y=\026\240\306=4\303\\=\'Z,>\251E\036\276\311\205Y\276\344\024\005\275\270$\251<py1<o\253\351\275\200\304\246;< \251\275\003\361\034>1\330L\276\372\342\344= \300x\274\244\2073=<PS\276@\233)\276V\227\361=\305\364O>tZp\275#l[>\370\273f\275\000\306\3269h\022\376\274\026\021\363= \333\256\274/\205\">\276\202\304=\330\224\362<bZ\027\276\206\023\363=\341\021\007>\267\314\274\275\246K\025\276\26473\275\201/S>n\312\255=\300ia;B8\325=tq9\276\336*\362=>\245\376=\032\325P\276rT\201=\036\230\312=\270\257Z\275\010\377\236\275\340\370s<;\222\'\276%g\340\275d\035\243\275(\247V\275\0170[>z*\241=d\230%\276IZR\276p\'\001=\353!/>HO\365\274\320\304\304\274\227JK\276=\201Y\276\260\265\036\276\360\2541\274\270X\033>B\026 >\213\266\315\275\206q.>\"\372\212=\3765\202=\034{_=\243\370\213=s\026\'=N\n\347\275mY\261=\225\376\272;\205\037\007>\2503\272\275&Xd\275\345\366\235\275GI\037\276C\234l>r\356\007>\025mR\274\270\277\005=b9\020\276\272\002\206\275\031O-\276\316K\242\275A\246\242<*$V\276 \034\004>\265\335\344=\037#D>\222M\275\275\"*\207=G\3119\2754q\302\275;\233K>D\027\205>\200Q\250\275\246Q\263\275\362\331\023\276\344\232&\276\030\357\276=h\204s\275i\365E>\324\014\024\276p\217\227<\002\271\023\276R\302\317\275\371&\317=u\216\255=<\202\225\274\211q\007>-\225I>\266\374\345\275=\3310>\024\324\027\275\005\360\013>\2662p\274\365T\256=\324\3639\275\030\337\000=\350\351Q\275)\307~>o\262d>\306>\214>mD\035=\244\025#>b4\210=\200gF\276\347A6>\331\024T\274C{\272=%n\252=\337x\n\275\365$\221;g\0221>\024uK>\243\306X\276\307\353\350=}&\023>\034\306w\275\371\317\007\276m;\030\275\302\222)>o,W\276\022\n$\276\022l\340\275\007\310H\276\330\242\261=d\272\231;+\315~\274\346\311\013\276\032\250o=\367D\224\275+8D>\364\224\370<\250\321\367<\020\345C\275\347\3203\276\351I\303\274\036#k>\336\203\002\276\270n\215=\324\273F>\234\302)=\256\352b\276X7\236\274\257e\025>\363\346d\276\233\037*>q\362B>\362\216\007<Y@\022\276\250:I>-\021\013>\031\312\005>\325\203\257=\032\243g\274#J.>\027\313\271<kG\023>\256\326&<\234N\355<\246$?\275t\340\033\276\203#1>\266\351\324\275\357\221\224=\233\3431\275\260\241]>\007\344<\276?_l\276\366\003V\275\270J\342\274l\2555\276\225\203\007\276\274\\\271=\036\256\036>j~\327=\331+\027\276!6>\276\006|\220\2753\376\346\275\216P\237\2740\311\315=\3054\246\275U#\026\276^\372\227\274r\2279\276pM\264=\200\335W\274Oc\004\276\n\315\307=&Pb>\251\276N>l\361?>\377\207a=J\3622>\203\326\252\274\260\307\335=\257\366\007>3\026\246=\232\227\273\273\024\243\007\275\210\301\216>\' \376\275\253\267R\276\0273\022<\265\252f>\304\212R\275?\227\014>V\320\253=\n<\304=\203+A\276}\3305\276#\371v\276_\351\017>e\350s\276\2424\324=P\344z<\354\025x>=[\243\274\223\t\003\275#R\010\275\312\325\275\275\373d5\276\352\315!\276\007\226s>\221\210\342=1\257Z\276\351\341\020\275\233x\235\275\271\333\207\274\n\237\360=,\314X\276\177\203\023\275\203\272.\275\334\257R=4P[\275\230z\004\276\rX\372\273\206\306\002\276&j?\276o\2678>\372g\307\275\000-\330\272\\\342\263\275\365E\334\275>\324\364\275+\301;\276 U^<\355\226f\274\274\355\233\275\"\262\203\275\010\327\256\275\361]9\276b\275\255;\247\035g\2754\257\032\274\225GG>\276sa=\013K\t>\242\205*\276-\214\237=\236[\233\275\360\211=\275\342\037\225=\360\330\036\276=d\204\275\360/]\275xK\273\275\256\314<\276O\300\247\274T\021{\274\020[N\275\373FV\276\340\005\001>\030\365\227\274\220\211N\276%H\301\275j9\307<T\2046=\200dI>\217%>> \300\006\276b\016<>Y3\023>$\177\274\274P\372\234\275P\251Z\274\301\246U>\343\2459>#\310\253\275U\345\347=\250\2069\276m4\007\276\34353\276}\204{>F\'w\274z\357?\275\372\270\322\275R\360L\276&>\306\275q\350B\275\361\030v\275\351\303\275=\216<C\274\376\225&\276nk\020\272\261\320*>\030\272\263\275\0208\205\276\t\225\312\275zO\344=\357E#>H\016\316\275\343\206->\327\025y\275&\246/\276d\200\034=\036\336\010=\355\362Q>\217-+\275\020\216X>c~,>\203t$=\364V\247<\246X\373\275 3\244<3#&\276\206\3129\276\027\311\035\2760\177\350=\252\252\237=\301\036P\276\336\212\303\275\242LF>\267\032!>\311\346@\276b\362\372=x\316V\276\244\262\"=\231\342(\2750!C=\265\240s\276O\336\276<\330\2425\275 QZ\276\236E?=\273?^\276\201\3055>m5\035\276\"[S\275\003\316\246\2752l|;\3435\233</\230\243\274\233\001\213=\305\272~\276\241l\'\2765I\350=\221\352\274=\337\371p>\266^->\362\r\252<\034\246G\275\331\0133\276\261\225\221=O\371\312\275 \211*>\n\367X=\2410\204=+\304\364\275;\023Z\276\014\2355<\203N\003>\247\214\277\275^\017\306=\002+\337\275s\206\370<\022\342\002\276=\260\330\275\351jI>\3426#\276\224UN\275\254\370\330=\310\341h=\206\354\\>AD:>(*\323\274\360\323\232\275\310em\276\200\t\367;E3\030\276\016\301\256\275\374\251\036=\337\210Y>\000\205-;\376\237\014>u\276y<\342\3371\276\372\336.\276\267V\000>\265\313\003>Bj\323=\201~G\276x\216+\276\344\341\336\275\374\344\353\275@S\037>\245:b=\322\264O\276I\222.\275~\277\261\274\237\034\033>\207\207\217=)G\002\2766\0023>J\316_\275\252\032]>i\316\242\275\2503\n>\306\007\006\276\022\316\337\274\000I\347=\341\214\026>A\007\207\274\333\261\t>)s\031>-\255O>\304\210P\276B|P\276JI\350=\262\317?=\225|[\276\221\2748\274\360$\242\275\021\210\r>&a8:{\227\270=\245\335\320<\261\n\253<Pp5=\210\240?\276F\361 <S\351\016> 5\324\275}`G>`\203\021\275x\350\020\276.\252\'\275lH\337\274p\215%>6\026\002\276\312\232\271=D\'\010\276D\362I=\332\205j>|\"(>:1\313=\rX[>\210\r\312\275x<\\\276P4I>\353H\r>\304\302\021\276\373Q]\276\315F\013>=\3014>\304\023\016\276\006\226\003>\200+n\274\3036\016\276\247\014\001\276<\251`>\243\251@>\252*8>*\010\233<\000\316V\274*c^>\315a\210\275qu\370=\302\2750\276V\365\305\271\300\022@>\"S\272\274\204\272\222<ny\223<\026@O>3\025\237=\350\364\032\276\257j\251=\n2\356\275\323\215&>?\"\273=\327Y\030\276\245\r?\276\335\276\n\275C\236\301<\032}7=o#\303\275\362\321\256=\346\247\006\275\370\356\024\272\254\301W=\037\237 =4\332\010\276mp\320\275|*\017\275\361\205\236\275\212\253\210=\036\010\315=-\030\367=Dy\211\275\231\366\340\275\367/)>\007\023\034>\002\260\303\275\370\214(\276p\366\310\273\302\001\211=&PZ\276Ra\251=!lL>\354\255\242\275\304j\032=x.\005\276:\223Z=\033N@\276g\270\331<Z\343\365\275\202_;\2762h0\276`\253\363;x\013\356\275&GE=b1!\276\327\035D\276\370\252I\276\314kX=\010\341j\274\370\340F=m\231\306\275h\231>\276b_K\276d\016\212\275\016A\342=\364\004\n>\316\227\310=KB\274\275R\021f\275\356>\325\275o\340\201\275\206P$\276\033\007?\276Nt\n=\257&V\276\226\324K\276\336\255\206\275X\362\317\275!cx>\203\230\210>\263\321j=\234\226\310=,0\210\276\005\314\014>\2042\342\275\207\217g\275\315|\031\276\243\347\227={\237b>x\343J\276\035x\246=Fq\254\275TM\233\275\351\313X>m\021\022:\334\212(\275G\361\224>\234\000}>\034\3654>\365\276F<\255\266(\276\013\364=>n\315\276=\214+\027\276\323X\367=\000,\3469\362\345\033>\216`\333=\330\001\377<\\b\\\276\257n\036<x2\314\274\262\356\214=\360\031H\275-/\230=:\211\377=l\235\212\274\216J_\276Q`;\275x\005\353=\205\327\030><\220$=c\222r>\214\366I=\251\206\262=\301\277w\276\270:\333=\035m+\276A\2032>\351\013\335===\204>\270\336T>\253\303\r\276\304\375\212=i\201\220>D\243\027\275\267\366H>\230\2003\276\357E\034>\245\210\\>`\025\343<\334\322Y\276\220>P\274\210\2524\276\330\016m\27529\314\275\374P%=\260ET\276Nr\273=\350 \020\276h\225\234<\000\006x:\234\211.=\370\221U\275\206T\323=XT\253\275\200\335m<v?\353\275\224\372]=\353\262J>@GD<\354\302v=}\'A>\365\316,>\\\343T\2753\310J>\301\243\'\276.\001\333=\275t\036>\000\224\203\275\027\007E\276\212\272\373=\352\020\344\275\261\"\370\275P+\256<j\200\340=\234\027\021\275`\247P\274\312\035\235\275\200 \207\272\002.\376\275-\211\035>\370\333\276\274n\217\276=\315m\'\276|\334\007\276\350kX\276\322L\354\275\236\270;\276Z\360\304=/\303;\276\232\226\241=-\3022\276\005\232\032>\317\241\370\275[\026\031\276\242\233\220\275\315\3662\276p\350u<\204\247=\276\003\267t=&~\303=\217\\G>\255US\276RyF\275R\3041>\360=h>&\221->BZ\202=:V\001>\205\256V>o\021C>\263\344\'>\342\213\251=\005:\366\275K\342h>\001\'\373=\227\002\030=\320\322^>\374\206G\276\027y\375\275\331\017\305\275\\j\005\276\223N\350=\353\030\320\275.\237\236=\243\303\262\275\024\024&;\346\363P\276~\000p\276\361)\032\276\275mX\275@\366\320\275J\257\'\276\\\032d>\020\016\346\274p>\311=\000@\021>\245\374\305=\340\364\005<\024\242h\275\371\272\016\276\336\305\362\275\003\020.>\027\216c\275\207#\246\274\330n%\276P\017\247\275G\273\006\276.\004\317\275\0074\003>\317\031\010\276Q\306e\276_.\227\275\313\247\354=\022\006F>z.b<\022\272u=\357\324\025=\214\000\030>\017\026\254\275O{3>dK|\275"
      }
    }
  }
}
node {
  name: "dense_26/bias"
  op: "Const"
  attr {
    key: "dtype"
    value {
      type: DT_FLOAT
    }
  }
  attr {
    key: "value"
    value {
      tensor {
        dtype: DT_FLOAT
        tensor_shape {
          dim {
            size: 64
          }
        }
        tensor_content: "\274\341\252<\236\347\354<\013\021a=`aA\274\000\000\000\000\027R\253\273\233\256\020\274\033\224~<\247\035X=w\217~\274\233;\217;\210n\257\274\000\000\000\000\325S>=\315\367+==\304\207<\355IQ=\267&\210=\231\235\252<\307\303o=#\330Q<\000\000\000\000\000\000\000\000\340\214\023\274\230,\371\273t\034k=\307A=;3q\023\274vo`=\365\026\370\273cg\205<\000\000\000\000,\n\201=\304\336 =D\2129\274^Y\343<\000\000\000\000\357\314\013\274\237\2317\273v\262\t8\330+\'\274\000\000\000\000\350\025\251\273\234\007C;\000\000\000\000\253g\237<\266\002\214\273K\327L<R]\206=,\201\345<\000\000\000\000\224K{<\247S\210=\370+r\274pV\005=N\n\321<t\245>=\177\003r=V)\230<+WI\274,5*=L\324x<5\252\215<\270\242\010<"
      }
    }
  }
}
node {
  name: "dense_26/MatMul/ReadVariableOp"
  op: "Identity"
  input: "dense_26/kernel"
  attr {
    key: "T"
    value {
      type: DT_FLOAT
    }
  }
}
node {
  name: "dense_26/MatMul"
  op: "MatMul"
  input: "dense_25/Relu"
  input: "dense_26/MatMul/ReadVariableOp"
  attr {
    key: "T"
    value {
      type: DT_FLOAT
    }
  }
  attr {
    key: "transpose_a"
    value {
      b: false
    }
  }
  attr {
    key: "transpose_b"
    value {
      b: false
    }
  }
}
node {
  name: "dense_26/BiasAdd/ReadVariableOp"
  op: "Identity"
  input: "dense_26/bias"
  attr {
    key: "T"
    value {
      type: DT_FLOAT
    }
  }
}
node {
  name: "dense_26/BiasAdd"
  op: "BiasAdd"
  input: "dense_26/MatMul"
  input: "dense_26/BiasAdd/ReadVariableOp"
  attr {
    key: "T"
    value {
      type: DT_FLOAT
    }
  }
  attr {
    key: "data_format"
    value {
      s: "NHWC"
    }
  }
}
node {
  name: "dense_26/Relu"
  op: "Relu"
  input: "dense_26/BiasAdd"
  attr {
    key: "T"
    value {
      type: DT_FLOAT
    }
  }
}
node {
  name: "dense_27/kernel"
  op: "Const"
  attr {
    key: "dtype"
    value {
      type: DT_FLOAT
    }
  }
  attr {
    key: "value"
    value {
      tensor {
        dtype: DT_FLOAT
        tensor_shape {
          dim {
            size: 64
          }
          dim {
            size: 64
          }
        }
        tensor_content: "\004\322>=\1776\246=*\t\315<\202\303\376=\014u\226\275\255t\034\274\236T\227=J\322\235=\277\205\275\275\220\276\301\275\267!F\276\306\343/\275L\263\224=ke\374=\234\2151>\357\002-\276\274}\367=r=/\2767\341Q\275\311\361\226=\363\344\354\275\2265=\276\275\247o>|\002I>\276\210\232=\223kb\276/\313\360=\356\204\">\004r:\276Fz\271=@SW\274\232\362K\276}\241%>9\017>>v\262.>\261\226\013=\241\225\027>\031\317Q\276\375\014a\275\003s\305=^\034\360=\243[\235\275i\362\023\275\370\277W>H\010\302\275\003K\276\275\360;_\274G\032\013\276,Pa>.\235\213=\204\247\264=\001\302B>K\262\305;\3628\200\275\035\342\\\276\202T\r>\005M\372=\367\034\020>B\203\211=H\205\246=\314S\230=L=O>\320\224\306<r\307\374\274\214\245\004\276A\312\017>3\376\356\275\361\223\370=\300\003\267<|8\014=\013\232\013=\004\333\324=\350\016\303=/o\013\275\2204a>\207K\226=<\346r=\2164\325==K\036\276\367\254\352\275\375g\327=\354\314\001\276\232\270\022\274\371%(\276\036\235\036>p\"<>\371\013->\323n$\276\013\n\032=8\035\261<\366rw>\222\004j>\220\262 \276z\312\020>*v_\276zP]\276\014\006\311=P{;>\rU<\276k\201T=Z\236F\276\201\222\203\275;\036\017\276n9\301=\244\274%\276&\221(>5\254E>\254C?\275\372\320W<O2\021>\021\000M>\017Jg>\261G\226\275O\220\034\276WJ\007\2765\263@>zi\t>\263(\034\276\265\006W\276T\\<\276\226\306\373\275`\340)\276e\034c\275(H\035\276\357\350\023>a^\363\275\205sX>\316\333\215<#]\023>6\2206>\370\355\324\274\342]l>tO\267\275\363+l>\215\224\270=\212\346\000\276\227\352\301=rF\023\276\312+n>\366\373/=/O\304=%;.\276\0311F>\343g\023\275i>\203=\370Q%\276\364I\021>\366^C>n\023S>,\002R\275\177\266t=\235\247\333\275\332u\t>\220\352\325\273\273\304V:\356\010&>0\244&\274n\251\266<\344\300A\276\376\266\325=\225\375;>\035\224\023\276\223\325#>i\333\016>\234\234\325\275\375\304\216\275\314\021;>\335q\023=X\243X\276s\030O\276\030\321Q>\205\251\240=\306\346F>\356$\261=\300\344s\274b\2319>\005\026/\276\270\206,\276-\235l=\021n`=\305zN\276g\330\233\275iQM=\353\234D\276\322`A\276S\314i\276w\244);\340,L>\202:E\274\013.%>\200{&>; \001=\217\002\031\276\017r==\370\010\250=\342Q\002>:n\327=\313\305Q>w\033E>\312H#=wdC\276\315p%>3AF>3\225\031\276[\224\343=\032!B\276\030o(>(\337F\275\300\025\270=lp9=\253\271\200\275\270\331|=\307-\247\275/(/\276\257oH\275iJ\030>\316!P\276\211%\376=^\3618\275\r\275\013<\350\341\001=r\004t\276\272\342\303=:\315/\276<\343\017\275_-n>^\365\010\276\223\320O=pn\334\274\231\330B>\371\000\032\276\3025\366\275F\313\307=\316G\272\274\r\313\213\275\344j\034\275\256b\360=\260)6\275*!\265\2755\037\030\272\010\262\201\276O\344\243\275\177/b>\332a\255\275*\324T\275t\000\300\274@%\002\276\n\365_>\232b\212;\215\275\316=E\"7>\227\333\336<Rd\010<5\224\251=:\326H\2765ZD\276\344\370H\276x\301\252\275\310t\224\274#\2648>\217\306\013>T\253\256\275\242\345\312\275\03337\276;\275\335\275\270A\304\274\"\334\355=M\\\031>\260\375\216\274\030\203\221\274\354\002\t\276p\344F\274\313\201\001>\325\246.>]W\032>~U\\\276{\2335>\344w\315\275H\360\337<&\261\204=\240\260\315<\2053S\276\031\344\037>\240\370\331<\307\207W>\223\356\031>\226\240[\276\000J\320\273^1\303=\375\244\026>\334\031E\276\331JP\276nr\222\275\223\245\275\275\260\227)\2756\rP\276\020\261i<\200\365R\275&\336-\276.\255.\276\224\266G=\240\031\274\273\212\322W\276\201\202$\276Z\315\035\276\003\301#>F\000\335\275N\230\247\275J\006\270\275\353\222,\2760@0\275\024\257\003\276\354S\016=\335L\017>s\330\031>.\266\265=N\366\364\275i\027$>\265%\035\276\360\002\233\275\221\254T>W\021\316\275L\225\275=\336^t=@?Z\276\237\221\'\276\235\353\021\276\340\374]\275\227\347<>\214B\223\275\016\002\277\2750\255M\276\352<\373\275\265-\373\275\362{\022\276\362\033Z\276\"C\211=\200|e\273 \350\225\274\250\374~\275<\261T=\362\276\372=\035$\251\275\201\236Q>\257+\310<<\223:\276\300\320$\274!!\200=\227\362\'>;z->\372L\033\276\204\334\364\275!\262\341\275\307\202,>!\265)\2768\027\344<\342T\357=\026\0332>\211\243b\276P\212\n\276\220\346\212<@T\030\275\200\305\276=\"\014\203\273\305\2224>|\2162=\310\367C\276\302YE\276N\354\227=\033\333\014\276ec1=\321l\002\275!\272X\275VQ\366=\024\327)\276\315\252:\2768eT>g3\335\275T\\\014\276\307e\'>\245\305_\276\300\247\324=}*\021\276Ft\003\276\247\355N>[M >UFL<\245Co=D\037D=\300\315\353\274\000w\352\275$\027\022\275\260\014q\275\324\345\005=R\324\353\275\301s\366\274\247F\001\275\026&\237\275\350\342\337\273\301p\257\275\"Z\256\275\2310\357\275\307\237\016\273_\342\034>@j\240\275\332&\213=5[-\275\270V\205<_\031\317=;H\030>/yH\276\334a\324\275\372p\007\276vq>\276\206\233\363=J,\354\275\225k$\276N\335\277=\035@\243\274\230\222\215\275\024\320\021\276\366*\322\275\004\210\276=<G~=\264#:=,\377\005\276\305\376H>\375#\310\275\372\311!\276\322\320(\276\263\262J>\361\324\001>\264\014\007=\340\247-<\221\376\212<7\007\305=\263\2551\276\312x\211=\323\355\356<\026\271\'\276\335\314I=#p\374\275\241\025D>\034eB=^\203\217;C\t\003>\034\356%=\364\251%=\017\304T\276\005[2>\262v\'\276\001\2166=\237\002\321\275\336\203\217=G\227C\276\360\301O>\016\223\227\275\310\245\004>tN\332=\253mk=HD\227\274\205O\022>\023\262C\274!\262\013\276\t\006n=i\253Q\275\260\2276>\333C\342\275Bj#\276\304\031O\276(\203\034\274)\336\022>\\&\271\275\301\323j\275\270\306~\275\226\264L\273\236\215\003\276F\002O>gl\322=\342\326\260=\212\2224\276\332\256\025\276\014\3036=\216\357g>\317\260\t>\345|W>\032\242\361=\320\3115\276m\276[\276\201c\231\273\276\300S>\324\203\206\274\033\266\227\275\346\321\370\275+\352M>k\034<>v\263J>\240R\022\276\335\261\247\275\364\036k\273j\271\266\274d=W\276\243\010H>S0\224\275Y\370\376=\251X\014>\377\212Y\275h\205\'>\376\240\213=WVl>T\032\220\275{\312B>\000\260\177\271\237\035\231\275\220\363\362\275\205^\032\2765\005\021>\275m;\275T\313\361=|\350U\276\345\370\010\2763\321\005\276+\237\322=\367\272\367<g\033M>\027Q\">\014bF=\343\266\372=\203x8>_rJ>\237\2415\274\214\331v>\240\266\214=\376JA>\376\215\014\276\271\263Q\276g\253\277\274,)X>\357\261\037\276\350\322>>\024\223\014=z\317\034>\\\013\372=\244\235Q\275\332l&\276_i\014>/\266\242=\2654\030\276\342\\\"\276\307\\\201\273\222\307\031\276\346\300T\276\254\313A\275\254\372L>^\301S>SH\025=a\321\275\275f\323\271= )\370<\256q|\275\374\347\001=\200$\366\274\242\231\301=\351\006N>\016\376Q>2\236\006\276\331\014K>\026\313v\275\314-V>\262\031\327;\t\235;<\330\007]=?@K\275\316\313\355=#\3010=Son>.\203\271=\245C\241\275\223\312\372=\035SC>\236\3627\276\312\327\333\275\244C\230=tv?>\260\016\003\274]\232\277\275o#&\276*s\'=\202\013\334\272\364u\215\272\241S\221<\213/\037=0\276\"\275d\177#=\263\003\252=7\254\241\275,\351i\276\3405\246<\337\'f>\007M\307\274!\200\037=\\\014\003>\350\362\366\274\225-\371\275\270*\236\275\214c/\275K\273$\276\002\257\224=\177\026\274\275\322\323\230=F\274E>\236\275K\276&^O>\200\333]\276b\245\220\275\261+\242\275/\013\367\275\240f\245;\302\370.>\327\325\375<3\355P>\217\266S>|\344\024=\374Y\006\276\230$\372\275KGH>t\206\"\276\317h\026>\373\223!>\244\275!>r\243R\276-(\204>\307\222k=\332\340\333=.\212\237\275\236\331\007>\222d\317=\363\001\221\274\364)4\276x\377\212\275\200\017\027\276\024\'\306\275\253\257t<W\245?\276\246\016F\276\364G2\276\210\373.>\2534\263<\227D\301\275Vl%\276\277\022l=\311\303K=]\022\304\275\221\253B\276#\237 >\311p\215=\300j\022>]\323O>T\330\235<ku\241\275\006\030&\276\203w\317<a\213\271:\003\322\252\275\204\034A>\362\266\236=\250\027\253\275\030\017\370=\312\344\276=?]|\275%\254 =\024k\253\275\030`\344\275\031L\010\276\233\225\t>O\235\245\275\261\0362\276\304\220\313=H\247`=O\276Z=\336X\025\276C\243h\275>\316i>j\026\314\275\2362\277\274\330\305\260\274\320*M\275\351J\027>\222E\212\275\037\004\003\275~\0078>\346B\266=\325\005\003>\245Rb\276\005\025><\343\323\013>\026\333a=\004p\034\2765\211\'\276Ld=\276V<\006\276$\265K>K\351\304\275l\2407\275\336\024M\276\262\374\034\276\331\264\037\276\0160\021>@\326\263<\223!\215=\316-\237<\343|\375\275T\362a\275\311Cd=.\2309>\304\203\317=\251\326N=P\377\025>\212n\034>:\371%>\250<i>\326Z\224\273\3646\010\2769~ \276-\024u\275\023z\022\276$Vl\275=\366 >\256\252\035\274\237PS<a\356\003>J\010\332\275\024\377O\275\034\007\005>?Ua\276\264d#\275\201w\337=\240\263\206=\354\237\025\276\266\262\366\275\0164I\276Qf\331=\r\367\273=\t\255\"\276I\014@>r\315\221\274\225\3609\276\234\305 >%\302\377\274]\253\013>J\301\251=Tl\017=\243TF\276;g\336\274\274J\027\2752Y5>-;\n>\263^\230=\036\224v=Z\302\357=q\007/\275B\356\352\275F?\202\2755\001U\276\233dH>\322%\24099\202\'>\rOX>\250\253\275\274\244\006\001\276\250\034\336\275\260\316\230<\302\333\352=\355\nD>F\310>\276s*M\276W\341\004>\000\376\365:\357\326=>-\312\030>\371\2339>\270u\025\276\307\270\024\276\324\353V=7\270\321\275&\211\224=@m\243;\263P\">lJA\275\2735I>\215o(>P\037\300<)\246\027>&&\014\276\"\244\255=,WU=\352\313\200\275~\032\211\275\257]\330\275Fs\346=\275\250Z>\337A@>l\351)\275\320\252!\276P[X<\312MN\276\346\234\232=\017\2600>&\272\245=@\237x\274\024\360\361\275q\345\016>\020\305&\276\017\264\032>\274\3479=\364\2627\276\035kI>\342-\314\275\372\300&\276\201\366#>\310_\001=\'\005D>\373\207)>\334\312o=\223\372N\2764\230u=4\332\000=7&\021>\264\t\305\275\360Oo\274\277\350=>\246@\365=\317\364\000>?\313_\276\246<\014\276H\302\321\275\312\206E\276\016\300u>\374\030\212>\276\235\376=*\223o\275\341\347\360=\025n:>l\354\306=!\320H\275G|L\276\003\023\321\275w\323\210=\225\3516\276z\264\273=\212\2637>@\001\255\275^n\001\275]g\335=aW\026=\263\234\r>r\3744>^cA\275$\360\270=X\340\253\275\310\275\235\274\001@\006>\002U\205\275\032 \311=\221\344L=\016\025\247\273\340\354d\274\306\275\233>\026\211\200\276Bu\354\274R\223[>Ir\034=\r,\037\276\267\206\351\275\274\013\327=\017`\036\276\004\257I=6\275\330=|\276\033\276\\\201\202>?\017)\276cF\006=\024|\201\2763\231\035>\353\033\036\276\234\364\276=FL\005>\275\233\373;&\217\t\276\365\350{\275\224zf<\367\035\256=q\031\216>Pi\214>\302\3758>\323\307(>\372F\357=J\244\016\276>J?\275\007\256\214\274\334RP=\037\026.=\334{\200=!]\312=\217%\225\275\313\364->U`4>pZ\005>]\367\375=J\013:\276m\362o>\001\320\037>\340\350g;0\204S\275k\034t\274\271\245\332=\221\321\216=\317\203\340\2754\2055>i|\365\275\261\355T>\366i->\263\234]=\260\303~>t\327f=\273Q!\275\253\276a\276\331\221\027\276\3320\r>\275W\264\275(j\275\275\234\343\205>4H\030=\304@:>\024b\211>+~T>\244W|=\356\220\014\275`\346 \276\367\221J\275-\327\027\276\016e\266=e\327\370\275\202\316\006\276\215\r4>\253m\264=+/\245=\332\333\210=\226\2522>\200*\251=\245N\\\276\027.4>%`\257=\264\276\006\275\352\353\014>\007f\322\274x0\200>\343U(>\016i3\276\031\262\224\2756\367\245=\375\177:\276u\212\350\275\265\235\036\275;\301=\276\252\013\262=\r\t\215=\017\325\237=\250t\033\275\250}C\276\335j:\276d\"/\276f4\022>\244@\262\275\317d\320=\365$O\276o\'\302;>2+\276\307* >\305\003\230<\201\'X\276\242\233\025\276\211\230\206<1r\207<\3356F>\355_\002\275\230|\375:\276\356B\276\236\374\355\275\005\024,\276\375\365\246<\374\370\237\275\025\325\317=\257)\010>\374\004Z>\251,\030>\375=\365\275\017\'\031\276O\001]\276F\037/>kxG>\021Z\r\272\334D\253<:\000%\276\2605\255=\264Qk\275\237\206L>\243\363\007<\326T\033\276\037K\227\275\322\262\222\275\265\237\005>&\255\025\276\r\317\337=\030\323\273\274\003od=-\'\277\275^\306K\276J\306>\275X:\037=L\247I>q\326J>M3\t\276t\031^\276\223\357\001\276\274\035V=a\360>=c3&=\330\361\341\274^\375[>\227\323\216=\202\r\005>\303V\215\275\352\014m\276\362L\013\275F\241\225=\340<\024\275\336\252\214\275W*\274=\004#\\<\343y\032\276\275\006u=\336S\016>\351\350\322\274\214\'\034>\t\"=>\353SD>W\036\004=}[\322\274\372wF\275;\267\207;T\006->@ 5\275s>3=\326!\025\275\360\021\003\274\343\262\355\275\035?\332\275\022\326\335\274\224\210H>h\302\277<\361\260\270\275b\260\002>\020E\355\275\030#\256\275Z\335Y=\335Fi>y\177\233=\323\262U\275\251\372\356\2751\354\023\276[NH>o\026\211\275\325[\222\275\311\025q\273|\354h>D\332#>\214\257U<`@\244=\216T]\276\033\326\023\276\201e\371=\213\324\330\274\360\320\027\2767\3000>N\351D>\376\326S\275\356\'\026\274\344>\226\275\367\233d=G\226\341\275\321\246\203>U\200\014>\210DL>!\334>>%\330\r>\314\375\243\275\346\356\001\276?\030F\276\001~o>D\247\025>|\024d>\225\010@>\214\014Z<Z1P=m\234?>\003\003(>I^\220>\340\245\262=\305\2648>\216s=\276Y\312V\276_\245\216>z}\317=\014\000\353<d\006 >\351{U>\033\021N\275\030cL\275\316\036X\276Bky\275O\227\357=\247X\334=\254D\367\274\3715\005><8\r>\273\000j=\373\266\332<9\270\n\276\274\350\216\274\223\351S>L\346\210\276hH\361\274w\355I>\345d;\276\333\364\215>dO\354=}\232\353\275\256\3429=\343\347T>\002?\202\276\275\335\032>\317\"e\276\n!\272=\265\360\276=\2531)\276\307\244(\274\324\240\004>\300\177Y>\352\034\204>\220b\312\275j\316\236=:X\031\276|\215F\276\233\027\032>\341>\205=\320\360\231<\t\016\013\276\356\273R>\350\024\347=a\264a\276\230t\336=\001\332\236\275\264\365\322<\257;Q\274EW\177\275\246\266\036>\320\022\017\276J_\234=`\223O=6\375\027\276?\340\273=\3172\301\274XgO>aq%>\267Sr=\375r\330=\234\022\355\275\221V\316=\332\372G>\320\254\307\274\306#c=zi\334=\024*\027\275\014\267\206=\266\343<>\261\277\035>\215\270 \276\311\022\214\275u\3152>\310fN>\225u\034\275k\324\026\276\354>2\276Z\374\004\2768\347\315=\274\177\365\273\357\331\010>x>\226<\252t-\275\004\0074\276\020|\256=1\213x=\306\334\313<2\372\036\276\305j\024=\n\3551>e\371\275\275\000\327\021\276&\014\013=a\2275\275\270\345\331=\331su\275\377\3158\275:UW>d\014\275;l\205\312\275\355d\017>\267\242>\276\362i\257=\030\r\001\276\217@\304=\267\035\344\275\005\021\032\276\357EX>\037\267P\276\244\232\023>\234\206C>\304\3454\275\2210\021\276G\306\215>\217\302\214=b\305\r\276\340\201r\274z\237\213>\322\274\251\274\036\365\340\275|&m\275\204\"\237<(\334\245\274\247\376\261=P]3=\035\352\243>M\366\200=`\271\255\273av\311=\345{8>\021\260\034>\206Rd>\347\343\257<P\300(\276\354\274\215>\204J\373\275\240~\237=\333\250\345<\203pE\276z\3023\276l\t\003\276i{5\275\252hP=\251\342\006\276R\350:\276\370-\324\274\254pH>\341\361\242=\262\366\003\275W\024\263\275z8(\274\235\211Z\276]\373\000\276\321\026\t\274\2767Q\276\022\250l=\033\277r\275\263\242$>,\347_\276/\343\031>\300ZF>\232(\222\275U\361r>\231\243#>\223\306\352<Y\030=>P\361\217<\020\215\002=}2(>\263\013\277=`I\030\276\300\n\036<#\317\372\275\346N;\276\313#\r>\254r\315=`\271\227\274\300\202\216<\207\010Q\276GG\231\273\3165\272=F\202O\276g$\257<\216\033\017>\273\301/>\376\3141>\364\275\201\275\252f\032\275e\n\202\275\024\362\267\275Q\020J\275\030\355\034\276\371/8\275\201\035Q\275(7\243\275\256\345J<\365\321\347=\312\020\342\275\357\234\000\274x\263\n\274R\232b\276\335\341\310\275\022FS>~\225\013\276\303Un\276\317b\r\276*\342(>Yc\r>\002\277\246=I\1779\276\333\201\373\275\302:<\276\315\376h>`<\020>\334\314\223\275\220\344q>\314\177\267\2752\351\017\275\336\032\222\275\251\305\347=\376\341\361=\363K\301\275)\337\301\275\272\205#=\274&\200;\364\317Y=>\005\010\275\240\315\202<\217\365W\276Y~\024\276\340\222\t\2746\363\273=\017p\024>\221\245,>.\377\014\276\342GH\276Z]\251=J4\260\275\310\225B\276\3003\027\276M;N>\234\330\000\276\200\002Q\273\3565\365=\3562?\276l\222\034=\200\026\324<\372O\274=e\3354>\020g\230\275|\003e\275\250\377\021\275\300\302o;\215\027M>\232\322\353=\\\005\021\276?\036\014>\332\377\206=@\362\323\273\000\374a<\271\'9>\351\3711>p}`<z;\025\276\316p\324=A\351\006>\244\262]=\200[\251<\367\226]>\030\3245\276T\331N=\030\353\006\276DH\031\275\232\276\223\275\377\276\003>h;@\275\377E\025>K\3769\276<\332S=X\227\002=\022\342Y\276\023\212\023>\364|w=\246\225@\276\021\021\031>\272\326>\276\240\263n\275\034\365\014=\240[1\276\306\003\036\276 -\270<fG\205=D\2537=\2006J\275&\232\370\275\372\345\264\275\224\215o=\036\367\347\275\026\217\375=YQ\020\276\000\3378:\320hT\275liz=\214\376\036\2750\246\200\275\376V\317\275$OA\276\340p\361\274\367\006\035>@\233\260\273k\253E\276\220\377\001\275\343I\031>>\275\220=\r \340\275\034=\272\275\006#\332\275\357\353\\>`9\341\273L\353\r\276\316\344\325=\216s2\276~\322\235\275\364\210-\2764\2734\276\001\035Q>\020\200\006\274X8\005=\370\333\005=\200\r \275.\342\250=\001\254\004>\376\240X\276d\022\221\275k\200)\276\352v\347=\206\372\200=L4-=\224\277\025=l\316Q=\321\244E\276\r\033R\276`\033\226\274\267\260\017> \206\031\275X\250B\276\316\'\313=\317\240*>`6\375;\222\333\263=Y`>>\230\231\341\274\230\262\202\275\376/\032\276Zz\021\276\231\342->\272\336T>\307i*>\272\340+>\225\370\037>\233\304`\276\356\364c>\037\025/\276\257\305\014\275\037\335\002>\366\233\031>\336.\370\273\325t9\276r\212\006\276^\277h\274|8\r\276\250\024#<a\270%>\215\360\353\275\211\303\222\275\242\377\020\276\006\203\\\276\2170\010\276\275w\t\274Y\274\023\276\364\310C>\3236\370=0\367\031\2760\326\t\274\242\277n\276,`\267\275V3\365=!W\344\275\211\200\354\275\"1!<\227\026{>\202\236%\276\332\245\217=\235\373\025\276\220v^\276\357\241\\\276\236\375\005\276s\304\002\2765\010\343=\266c\272=\361\341\371\275Y\252\334\275:9\337\275\004.*=\'\334\365\2742\371A>\332\334`>\331\327C=\344\321\272=\325\021R=92\216=\264C\265=\260\336\343=?&p\274\217?\337<\'\311\007<Tx\357=\323\312|=\r_\226=\026#\340=\025\301\372:-:\213>R\031\335\273\306~A\276|\342I>X\2131\276\022\312\350=\220\013K>\027{\257=)\177\024\276\010\254\202\274E\226\032>\311\312#\276\374\216Y\276\325\312%>\220HJ\276\030\0369\276\004\262+>6\314\200\276\355G4\276\005P\257\274\321\330\010>0\004\364\275\200rn\276\376d\322\275\351\t\035\276{j\t>B\214\235=,@\376=\026\000.\276\301T\032\276$&\n=\317\272U=\243#\t\276\373\003*\276\305\216\271=\264\307T\276\026[\275\275_\243\330<\375f\002>\222\206k>\212\217\240;L\234\207>J\376\247\274Vj\210=V\221\364=#\227\"\276\226\264\016>C\221\235\275E\244(>[}?\276k3\232\275k\344Q\276\304X\246=\204\341\030\275\016\310a>\252\324\024\276\306\352F\276\005q\022\275?\200C=I\017\354\274\256\312Y\276\253B\004\276qb#\276\332\025M\276\312\345\n>\025\027\210>\312e\326=\264\252y>~\334*>\367q%\276`6\225\274\325_\366<\332OA>\270X\227>\214\266\317\275t.Z>`\3651\275@\032\267=\267\336A>;t7>!8\345=k\357a>\233\332\234\275\214`F\275\026?t\2760\022Z>\240Zh\275\302J\322=\371\376\241>:\254T\275\205+X>\343\215\036\276\303e\034\276F\026\202=\224][>\260]\207=\277\361F\276\230\025\215>\255:\344\273@EE>\223\022\275\274\010V|=\312?8\276\203\3502\276\027H\275=)\344\227\275$\0053=\334\310\255\275\334\341H\2769I\227>\222\227\013\275\026\227_\276\004\265X\276sp\230>@\256m;\014t\375\275\275H2\275\371\217/\276X\323\254<\277\272n\275\313\274\305<\016\207\014\275\204\032\376\275,4\007<!JF>\321\261\312=\362\274\345=\000a\237\273m\335\373=\212\362\025>\344\332m\275\365\356\035\276\274\244\322=\234s;>\377\006\n>\"\016\277\275\363\273\275=\372\350\307=\211\225\243=J\n\203>\244\326\007\276\005Q:>\271<\212=\034\013\316=X\274\200>\373\2317\276\203\276M<FD+>O\016\250=\264\032e\275\022\216\013>\251\2117\275H\365\375=\354|\211\275\036\301\330\275\272\007\255=8\313W\275\354\347f=\2534\364\275\351\245r=\326\210\216>\200\364\006\276W\323u>\365vd\275k\003H\276O\202\201=\305\262U\276\337F7>d\367\211\274\010\361\205\275Y\025\005>\036\001\332=\014`z\275\333WH\276\302\371\206>\355 \003\276T/j>\366\323\200\276\017U\365\275#\222h\276\265\024(>%\365D>\356\006~=YDM\275\240\024\010\276\'@A\276k\313\323\275\371\211\366\275\364\240O=\367,S\275\304;s\275\tu\335\275\225\270d>Q\'\300=\336\363\001\276\356\356j>}\"\017>\347\324\022>\344\234C\276\305B\005\275,\302\025>`x\251<\203.\213<\355\331\010>\325M\316\275\203\353\355\275\362\230\300<\177\201+\276\024v&>\177@\027\275wn]\276;{B\275\326\256\t>7\273b=g\354\310=IsU\2765E\003\276`\335X>\033\215=>\213z\315<\017\344O=o\003\010>U\227M\275A =>\221\003M>\006\200\255\275\217ga>5\222\241=\014.W=\352\303,>`\371\211<\331RQ=\333\206\254\275U\250M>*\003\223=\305?\022>\037vF>\345\014\030\276\024\220\";\361=\002>\270@\276\275\370\270@>\013o\353=\314\215h>\010\244\277=L\n\213=\200b\335\275\337\377#<P\351\003\276\257-\266\2752\304D>\264p\002>8-\204\275\372\367\367\275\226\t\334=\373P9\276\333\330\022>\226\2674>d\304\032\2769MF>\231d\001\276q\'\022\275\177\252\317\275\213\343?\275\325\233\364=\021\017\255=\335\317=>8L\031>\366\251?\276\342\'\312<\272VJ=y\323\204\275\367o\003\276sX\377\275\233\232&>\320\216\010\276\337\264\221\275sf\306\274\'g\307=\255\227G>\266\221\345<kw[=\250\026!\276)\261\276=o\217\321=^4\321=\253\316\336=\262\357\364<\366\031\334\275*\330\034>\272\212Z>\331\017\253=\250\262\003\276o\360\362\275\244\304d=[V\263\275\244\361\034\276\240\234V>\2161\211=\267Y\036\276p\213\003\276-=t>\t\202-\276\034Lh>\341\214\007\276\275\033a=\336\030P>\252\273\036\276D\252\240\275]\320\256=\201\205[>\022\003G\275t0\005>\005\r7\276\016F\317\275~_x>yv\037>\362y\027\275,\355)=\226\264\220\275\245\261\264=?\342\241=\330\226\330<\252\341\352=8\326\336=`\334t\275\300\007\330;9\347\007\275\270\001X=`\202c\275\002\213\271<.\031\311=\243{\026\276~R\034\276t\240/\276\272\360\266=V\343\363=53\347\275\005\216\006\276\326\3419\276g\226\014\276\310K\241\274\370\305g\274af\000\276},.\276F\331Z>\246\0277\276\036\321S>\323\013\033\276\024vb=\273g&>\212\024\260\275p&\001\274\314\236\016>\366\031;>\206\222H\276{\305F>\022\344\027>\343QI\276\030\021\204\274|\\\307\275\346_\006>\2641<\275\263\031C\276\264%`=\242pV\276\270a\220\275\360u\350\275\264O\355=\357\263\250\275 \263\220=\372 \305\275\031y\'>\226\306\214=\3063@\276\260B\326<\267\353\344=\242\321\021\276\277\231\014\276g\350\273\275\3104{=\270\360\036=\226O\236=\033\251\032\276)\273?<\322:\264=\271\202I>\352\222\335=|\202\374\275C\'\370<HSz\275\334\357\277=\210\350@>@\316\263=\213\274B>\213#\n>1sb\276$\331\233\275\225\022F=\316\"\355=z\002\201=i7\217=\313\230\307=\300\343\246\274G\220\217=\364Gh\276c\267\005>2\361\216\2756\313r<\210/\330\275z\314\323=\3452i\274\034\315\005\276uI\274\275\214\372(\275\014q->=&\013>-4%>(\024Y<\265K\210\275~\232>\276\224\222\034>\355\316#\276/\362=<\006\373\020\276\235\034\264\274!\356\356\275\300\251V;i\001.> \\Q>\214\261\000\274`\355\014\276\324\032\210\275?\002\230=\347,\210=\332lb>5\271\222\274K\354\203>\017N\027\276\300Mq\275\016\246J=>>\207>x\010E>\253\273`\276\306S\345=O\300\221<\013Z\002>\240b\245;\037\241M>O\366\000>\372\347,\276\353\264J\276\024$ \275a|\033>\034\350\026\276\031G.><\310\003\275P!\324<7\367\034>DT6\276\221\3436\2768\325%\275\036\007\373=\334(U=\211\0007\276a\013\023>&\324\220=i\020#>\340T\323\275\204,\t=\014Z\020=\312\232\031\276@\237/\276u\314\n>\322\344\202\275\032\372\233\275\276\360\253\275\303\027\004\276\362f\264=\304\337\005\276\316\031\360=\0232\037>\3700\033\275\277\022$>\0074W\276N#\014\276\016\241\260\275\237d#\276\004\215\017\276l\0275\275\2238+>\264\305n=\310\'\307\275\232\316\240\275\204\2529\276!z,\276p\262\357\274\206\235\371\275)\233\000>\311\304->\344\322{=\000 \302\273=\256X\276 \351i\274\325[\'>\253\326J>\352\243\207\2759\375Z>\352\020\324=\004V%\276\331U6>\314\326q\275\017>\251=`V\225>\010v\022\275;\261T\275\025\016\022>\316\201\225<2o\353=\334\204\320=U\212\242=\364UQ=\242B\342\275_\000g\276x\333g>\231\206\273=\245b\010>?oH\276\255_\352=\337j\025>,R\244=\244\305\177=\t\202\211=\\\316\006\275\327\251\275>\323\000S>\354\320a>\212(\016>\004o\023\275\317\223|=~\243\361=`\261~\275\245\033\262>\2640\253\275\213\207Y\276\240\270\350=\277\366K\276\031\340<>L_\236>\345\271\233=\271&A>\333\370\207\275=\334J\275\266+\004\274\245\227A>\371i\003>\344xO==\206h>\346\014\"\276\376\336\034\275{\021i\276\254n\203>H\364\010=3f\007>\265\020\344=\022\336i\276\374\034\332\275{\257\203=R\234\264\273\374\020\3529\362\267\237>S4\326<Y\315K\276]89>\320\013\026\276{\362\366=\017\230\227\275bc\243=\032\2051\276\257k\211>\rl\304>2\013X>\261MO>W{\010\276\271\326\030>;\331\216>\242\220\374=\362\n\266=O<\203=5,d\275\352%\327;*_Y\276<\031Y>\356\203B\2732 \225>\317\244Q>\366\263\310\275P\025\241\274\204\007E>(4\256>\271\377\215<\324\242N>zZ\032\276o\357\342\275Le)\275\230\222\256\2751-E>\256\r\271=\304\316\020<\t\004\206>\245N\'\275\010S\267>\347\322\032>|\323\262\2750\367\201<\256S/>\343\377\272>\3656\245\275\020\026\210\275B/\204=\313\020\024>\250\252l=0\321)=o\333g=H\241\030\275\036*%>\t\370\222\276\217\263e>3\231\006\276\320\361.>\377?\350\275\326\261 >\245\211K>\036\002=\276\230J\007>AJ\302<tF;>\3604!>\3078D>\343[\r>Pyp<\225\375R>\342E\312=)>\250\274EA}\275\362\331\026>\213\003:>\332\271\206=\235\224\254=\260\322\226\2751\0344\274\247\316A\276\347\333\332<\252\307\n\276&\007\007\276\244\300U\276\033B.>[\244@\276\230[\250\275\200A\031\273!}\262=\010\355G>\227e\371\2724rK>\004\246$>\204\371\306=fo\211=J(\002\276\354\356\r=\216L\200=\212z\374\273-\215\226\275Z\255\316\275\024W^\275J\362;\276\263\227|\275\001I]=%\356<\276\000\312a\275\226\305\300=\023\375\221\275\230\242o\274M\265\017>9\340\352\275\245n\035>6\376\204=\027\017>>;PM\275~(\305\275\334]\365:\371t\260;o\312\033>\224\2116=u\344\026>\234\324\270=\203\367`=\301\356\370=\270\235\357\275m\317#\276\272w_\276ws?>\214Ht=U}U\276\023\3141\275<\317)>W\324\314\275\316\010Q\276*\313\371\275\244aZ\276\361\1772<\033\240P>\203\254*\276\300\255l\276\370\233\373=\330nF>\264&\266\275\360\203\2419\325\035+>l,\013\276\307\300\225\274\205\322t>\266\263\365\275\226\004\350\275\"\200a\276\023YU>\373\036\031\276k\361b=_lB\276z\2466>\020<5<\376\365\227\275\034v\342\274OE+\275B\016[\276M\272f>\250E0\276\341\326\204=t\\\010\276i45>\336\026\343=\203{\004=\304\250\326\275UkB\276h\213w=\265\265u>d8{>\206\200C\276\032)\211=\304\250#\276\215I\034\276[/\236=\337\341\340=s/+>\356\245g=\240\300\202=\276\006\305=\241\354\231\273]S\374=\313\020*>}\035\237=y\207\264\275\222O0\276\303.\254=F\262*>\267\313t;\022\254\370\273\n\377\310=<\223x=iR\017>\325\207C>\302c\252=\316\215\313=\233\315F\276=\365!>\375\243@>.\225*\276\007\364\275\275E%X>\275T\032>\346_\021\276#\342\\>\272\317\334=\300\023\010\276\3645\244\275|\311\231\275]\341\343\275\311=\007>V\006\r\276\241]@>\360\247%<f\357\365=\200\017#<8\007:\2758B#\275\256\341\255\275\362\303\306\275\267\342C>Q\266\005>J\"\315=\322t\371=Z\346\221\275d\365q=\034w\225\275f^\355=\020De\274r\343>\276\214Wt\275\335\353\000>B\242\262=%\244\032>\177\247\034>P\200\364\274\374\217,\276\\yd=\241jB\276\274\345W\275\236v-\276\236\026\035\276\253\315=\276x0\337<(\022\337<\240`\336;L\312==Nc\310=$\200Q\275\223j\033>6\023\347==\202\274\275[\300\002>0\342B\274\226\001\277=\252\0173>U\r\356=z\334\212=u\341\034>&\251U\276\r\370\212\275\036g\026>\201\321\032\276\013K\256<\303\200\307=\342N3>\326\000&\276\246\213Y\275\013\003\376<.\277G>\316\177\'>\\,@\275\013\342\207\273\202K+\276\340\206P\274\370\332\317\274\240[1>m3q<\006 \027\276\260o7\275\326\362\035\276c\231\023>]hY>\r\010\">\314\004z\275\312\377\351=\241\023\375\275|}\220\2753 \237\275\026\026\345\274S\370\000\276\324@\327=V\261\352\275\246\022E\276\344\010\270\275\377\010 >9\352\"\276mQ)>@ju<\300\275\001\273X\343\264<\366f\346\275\215\300/\276\025\257\030>d<G\276m\274\324=\222\263\"\276u\356\204\274\342\223\000>I#\014>\243D\314\275\010Yg\275\227rS>@=,\274W\247\001>\320N\234\274\230\n\246\274\213\275\223=\317\356\000>&@G\276\371\344\002>\376\036+\275\250\365\327<\256\271\016\276\244\246\314\275\006\003l<s\237\344\275\306\346t\276\336&\373=\313\220\361=\232@\336=\200Na<\216:\364=\331\031k>p\n\335=\207\361\223\274?\330\023\276\n\013\022>\342z0>\267\354i\274H!\t\276\327\002=\276\261\237\270=<;1\2763\260\030>\242\327G\275\235\235%>m\253\255=\371\233\303\275\333Z\027\276\373\177\010\276o0\375\275\314\224\r\275>\021\330\274\275\332\355\275\361\350=>[\201\211=\242G\223\2752\027\343=\331/,\274\355\331&\275\263 w\273\311\314-\274\272\010\\\276\350\261\r\276I1\207\274\273\"\322\275\313m\033\276-\022T\276\233M3\275\202\240M>z:2\2762\354\230=/\250\023=y\351\275\273\316\223\372\274\303Y\225=U\275>\276\201t\021\276A!P<rN*\276\0254\276\273\331!S\276l\321\021<>(\016=>\372%\276\233=\023\276\347\203\367\27583C\2752\335\222\275\314K\333\275\277lk\276\030[:\275)KC\276\340.:>\366\241\203>c\356.\275\372(\035\276\242m\211=\270\233\021>\344+\016=\357W\323<d\217\264\275b\2529\276EQ\025\275\335MF\276\353\260\264\275/M\252\275\233\261W\276\260\201\307\275\204\240\r\276,<t=<\227V\275L\035+=\226;\227\274=\n\212=w\331\230=\257\021\243=\356\367\264=\025%\356\275QfO\276DL<\276\242\366\307=\211 \231=\212\272\357=b\205\017\276\234C\220\275\353\235\036>\017\337\347\275`\236C\276\210i\254\275\205\221e\276\252\214i>8&\"\276\376H\177>\024\244\334\274\0217f>\240PU\276\331o_>k\344\312\275\006\327$\276$\305H\276\201!\330<\264\222A>\336\374\221\275\330VZ\272\024~]=bq\322\275\367\353\267\275\023\'\211< i\256\274\205\203\257\272*\215K\276\244r\002\276\217\372\"\276\343-\202=\322g\215=\233\204 >\205W<\275\366c:>\371\374\000\275<\321 =?\364*>\271\277\025>\324\023\261\275u\264 >..\274=\304\351V=\310\3539>\331\031<>\2606@\276I\r;>\250\3523>w\314\030\273\177\026*>\277\235T>\331F\006>\313m5\276D\206>\276\205>\324\275S\254\004\274\034^\272=\016K\355=\003\033:\276\034\333\017\276c\301(>\277\366\023\276\022\323\231\275\036\013\246\273\311pU>.@\376=\210\324\244\274DZ\016\276\'y\031>\314\213\204\275\2353\177\274\353G\330\275e\326\325=O\244\306=\252\230\261\275\256&\257\275%T\036\276\2343\342\274\270\037O\276\036\256A\276\311d\320\2756\220\030\276+/\210\275t\021\017\275`\355\312\273\246K\243=\313\241A>\350\346\247<j\346\276=\'%\035\276\230\322\251\274\212\241\345=b\212\032\276F\300\024\276\351D%>\226$\341\275\301V\021>\255\'$>: \240\275\027\016\342\275{\266\032>g,1\276\313\373I\276\233\356\n>|$<=(\245\217<\316\311\345=\2443H=,; =\036\251\306=5f\022>\322\213\311=\363\252\276\275%\247\376\275\250K\261\275w\3347>/-\026>\340\3217<f9\272\275\337\3609>/\376\022>F\362\223=\246\005\235=\242\232A\276Jk\202=\007\330\t>\320!.<}e\\\276s\352W>W\232&>\022\274\214=\036d\262\275p\332\362<\244\001\016\275\266G\220=\3608\220\274\243\017<\276\000\334\0139`\320\250;B\240\253\275\227\305\364\275\245\243/>\332\006\017\276`!\321<z\240S\276b\237\266\275@\230\307<\244D\016\275ZQ=\276\024=p=\034\332c\275&\037\210\275I&|\275\2277&>\020\302\004\274k\tV>\305zB>\214\3413\275J\351\277=F\2357\274\367\217\342\275\350<8\276\250$\267<\211\025\342=\2264\260\275\305SJ>\020\367:\274)\310&>\256\243\205=\350\2530\276N&\274=\004iX\276x\371\373<{Z\226\275eO\005>\341\333\337\275\001/\023\276BT\234=\225\022$\276pr\212\275\0247\'\276(\343I\276\200\r\021;\357,+>\002\342H>\254^*=\377\027\237\275\025f\331\275e\035\324<\n\224\324=\026?\323=\2530B\276t\200\311=`\356?<\222^\357=\322}\213=z\0260\276\330 \305\275\324p\010>\004\270/=`\307\014>+\217Y=\0002D\274\340\361m\274c\363.\276u=O>\353O>=KzO>\217\305\'>>W\321=B\027\027>\000\257O<\326k\205\274\340\2761\275\240\222\303\273\274\377\276=>\025q<Dg^=-\313\256=Z\227\247\273\326\025\242\275\302K\006\276\236\307\262\275\324p\275\275\317\273z<E5D>B\"T8RI3\275\210\324*\274\332\376\242\275OT\'>\tR\376\275L\030\017>\t\354\203\276\222@\243=&\356\206>\343\010\032>\212#\333\275\345\000,\276\230*t\274\227@\'\274N\016\274=\245\216=\276>!=\2760t\001\275D\031\375=\245k\200>\227\251\177>\3200-\276\005\010\224\275\200\2378\276\203\355-\276Mp\267<7\342/\276\341\270!\275\254\256c\276$\357\216\275\023\3218>\000Bf;\272>\304\275nc\316\275dbM=\324\210W=\334E\016>\207Y\231<o\334\276\275/\242\224\275[\260\351\275\277\2261>\277\305\223=>\257\t\276\367\275\245=m\356\010\275Qf\250<\237\345T=\314p\036=9\347\r\275\314\342y=o\216L>\306\\\320=\374;\\=\'k\037>\337`\014>:1\031\276\014\016Z\276pY\350<\341\376\353\275\367|8\276M$:>}\262F\276\024\214S\275Z\376\313=|\341\r\276\260C@\275\300\177\207\273g\273\342\275\360\273\230\275^\032\207=\375\301\361\275O\355\357\275\346\253\220=\000\314\351\274*&\320\275\\qZ=\207\352%\276v\257\230=\300\260\002<8*\376\275\270\263\256<10\020>u\246U\276\311J\363\275~\033\232\275@w\341\273v\354\030\276\r=%>\333\026J\276\026\2752\276\014\223J=t\2745\275\332\221\000\276\306\213\264\275\020\364\271\275j\014\351=\267\363\314\275\250z\247<\024r\367\275\023\311A>\320\032\210<\213D\276\275x\343\234\275v\347\002\276ts\217\275\0326\223=\336{\266=\025(]>;\033,\276m\235\\\276\016\242\255\275\372I\311=\003\022@\276\026\214\311=\315\255\272\274y\263\304\274)\315+\276\200\274\272\272;X\207\275H9\027=^bB>\366\217\004>\377`Y\274\241\250\234=I\025\357=\331K;\276w\265\236\2753\230k=\022BH=\274\343\021\273Lz\262;t\303I>,\t\323\275\236x\261=\215\337+>\363\002h\276\256\207\030>#\230\010>\300\3534\276\356\002N>Z\202\303\2751\231(>&\235i\276\r\247\025\276\264ev=\360\304\\>\310N\347\275}\016\200=w\227<>\227\026\030>\212\343\005<|1\036>E\277N\276\240\255\024\274\256\343:>\223^\025>\177\370\213\2751W \276\362\213\223=\260\206h\275\305\013@\2769\3123>\263\273D\275\2631)>\347\354V>\302\3230>\207\236\205\275\374\375\321<T\365&\276\307\301\237\275\351\255\325=\266_M\274\356o\314:\251\313Z\275 \037\356=\223\245]\276\376{\025\276R\300\216\2750@H\274\316\277\310=e\243.\276\226\300$\276\375Q\002\276\2473Y\276\314K\230=\203\333\272\274qR<>^j\274\275,\3458>\002\243\352=\024\336r\2753\354\344=t\304\006>\222\344i\276\010I\345\274!\3063\276\373\216\302<\300\212\332\274\360\\\205\275\030\023\205>(O0>\253;\336\273\005\307\372\275p\310\344\273An\272\274\342#\200=\\x\256=\251\247\363\273\007\374\036>\351-\374\272\227\270q>\247\302\207\275\'\'\205\276:S\231\274m\007\201\276\177\333<=B\'0>\3665\211=\242Yi\275\377A\031>\250C\010>f\'\240< %C\274,\020$\275\277\261-\276\261Cn\275a\302\204<bc\344=\331\232\327\275B\254(>\244 O>\033\021\007>\261\310\023>;\240g\276\235\227Q\275A\003\201\275_\322\270=\214\216\323=J\323\322;w\225\325;\200\370\216\272Bl>\2765\254\347\275\254\022>>\016Z\222=\020<(\274\303\233[\272\225&\033>\337\306=\2761*k=\373w$>\371\330\222\275\003\221\036\276Z\310g>l\371\034\276\257\010\216\275\330C-\276\2243i\276j\233\371=\2073\321\275\363\023\216\275Mx\030\276\2004\371:t\244H>PuX\2762\2758;\237\242\003>\261\306\n>\326\034\210<m\0058\276\035\325\243\275/X\315=\254EB\276B\003b=dR]>X\267$>\345z\241\275\004{C>Vq\\\276\327%\357\275\'\026E>8r\242<\n[\350=\177\244\240<Xr>=Z\017R\276\256$\253=\255\232<\276\345n\302=\373_\017\275\"\310y>l\255C>\2038\203\274WG >\343\334\025\276\t\265\303=\224\177\257\275)\324!>n\361!\276I_\317=\367\334\017>zU(\276\267u3\276\\\340U>W\010\205=\327%,\276\377\233\316;\307\303\267\275\273\354\225>\340w\233\275\334\366S>\271\346N>\310o&\276\224p/\276W\013^=\317d\313\275\274N9>\323E\026=\241\220/\275\220m\361\274\230qs\276\250jW\276\036T\335\275\367\363\377<\245\t\222>\263\256h>\367[U\276\271\'\'>\304N\233\275\371\347\212<\310\212\013>\034\372{>%\021\207>\201$?\276\274y\253\275\021\204\237\275<\340Z\276V\001\203>\266\034\021>\233!$\276\276\374\032>,\255\250=\315\004\351=\355 \314=\353Q\335=\304\315 =4\233$\276M\255\265\274_ -\276\331n\370\275p\035\301\275\"\257\375=)\313W<\365\2414\276k*\003\276\002\257\313=\374\217\034\276\\[\217\275\350\226\327=~V&<:\004u\274\352\330@\276:\355\216\274\035\246+=\337$\260\275\273c\023\274\265\356\026=\344\305\217\275\217\343\372=\026mQ\276\211\300(\276\314\256\035<\211\331\027>\213c@>\030K\322\274\254,6>\276\212\024\2768\270\362\275\037\224\004\276\356\373F>\271\010\370\274u\213.\276\n\326\361=\2136\272\275\241\321\001> \323\335<\256;K\276\223\243W\274W\027r\276\370\220S>\213\274\002\276]\225!>\317^C\276^\361\247\275/\345\024=}\361\254\275\272\212\217<@\320\001\276=\232\033>V\322\021\276TN*=\310\'\241\275\234\262\215\275\211\201h=\302\t\217<\326\375.\276@\016R>y!6>c\334h>\276;M\276\306Z\301=[\323S>F3\204<\323\020\217\275F0\020\276\030\312\r\275\313#\007>yk\234\275u\217I>\303\356\304\273=`\317;}_\273\2752_1\275\216\2748>8\365\017\275\357\345\312\275\000\306==}c->n+:\275gf\273<oiK>\364Q\003\276bc,\276\307\313\017>\000\373\304:R\334\203=\334\303\034\276@Q\234;rf\302\275\351D\013>\214\256[\275\231\371\333\275\274\231\031\276\276\320\266\275\264h\024=\001\235\013\276\036-\343=\201\003Z>JeH\276;\224]>\327y\021>\214\263\271\275\234\221_\275\303wF\276\365\246F>R\331\326=\263Q\013\276\254cQ=,\257\r\276T\365]\275\344\267@=\203\241\001\276f|\363=\271\020\030>\244\251s= \237>\275`\005\217<p\215\025\276\202O\272=\333\375Z>I\334\036>\250 \316<.\233\016\2762\t\244=\240\352\252;\333mS>\277\232:>\217-J>\213\367\020\276\264!Z\275)\010\317\275\207\371\010>\025\230\366\275j\014S\276\300\276\353;\211\267H>|\355)\276[w,\276+=\306\275h\374\216\274v\245\251=|\026E\275\361\210E\276\2157\313\275\320~_\274\210\243_\275\001\353\007>J*\221=\r\206\311\274\343u\">\326`\225\275\374\001C\275s\306\302=\341D\004>\216\234C\276\345\\\353\275,\001\254=\306\270\334\275\205^\204\275Y\373\211=U\022\223=\250\347\350=4\215N=\013!\333\275\322I\233=\177\360!>d\0104\275\300\317<>\016\343@\275r\364J>\362\350\261\275\301\310O\275\314S\364=zN\213=\233\203\353<\362(\023\276o\335\354=k)\026\276\004\224I=\201C\376\2750\277b=s\250\235=|\277\376=g\rP>\200\311\t\276\033C\005\276\361\037u>\3342\201\275\267K\313=\374H!>\224?\326=\275\020C\276\353DR\276\232\265\213=\024v\257\275b\0015=\213\006\327=\320\357\350\272\225\0348\276r\200\001\275\370\035%>\024(M\276\3523D\274>\023-\276\357\230\035\275\234\013\312\2729\324\216=\362J&\276\347\333\025\276\\\354-\275V<g=\220\212r<\332\323\022\276\005`H\276\311\3056>>\200M\276\240Z%\275<\313\211>\215\317\314\275n\274\371=x9w=\325{\034>g\204\033>\216h\276=-\304\345\275\275@ >\265\021\237\275&k\252\2755b\301\275%\234\025>GA\024>\014#c>\022\262\022\276\177\361\201\276\205\031W>U\005\347\275\345\356\025>\231n\214>@\315\033>\344\321\024\276\215\240O\276(y\020\276\314\3014\275\265\312\033=T\021;\276-Vo\276w\315W>7\223m\276\307\204\t=\262l\177>q\310/=\254f8=\005WT=0\305T=}b\232\275\257\3214>\000\335\352<@\345&;\210%?\274\004g)\276\326\243\250=\260f\020\276\224f\321\275c\270&\276SPG\275\346m>\276\356a\231<\375Q\372\275\312\211\310=\257@3\276\335b\355=i\225\210>\245y\024>\2374$\275M6\230>\350Q\245<$%s\275#\263\352\275yw\324=\344\247)\276\220\320#\276\3523R\276\241\356=>*\260\254\275\033r\224\275\372\336\327=\031\362\246=\255\223/>Dv/\275~\336\025>\030oZ\276\261#\266=W\224\035>\352\327\214=\221\206\r>\341f\242\274\362B\240=\374t>\276\244?>\275\350\204&\276UM\"\276\010^Q\276m_\212;6\006\242=L\212\225\275h\244\262<\375\301D>\304\005d=\363\3652>\210\007X\276\330\'z<3\236->\343\236D\276\347\3217\276L\024\t>^\332\273=\250M\306\274\216$\270=:\035\024\276\366\202\311=\337\3756>\267\033O>X\004\365=\230\022\004>\353\035\326\275\320\360M\276(\252\264\275\323\326\321=\370`I>\231\314L>\222\016\004>T\214K\2764\320\010\276\177\267{\274\000\177\357:?\247\277\275\'Q\252\275\267\2734>\3727I>\233\010\\\276ZR\261=\031\342w<\006\300D>$\230\036=\205\005H>{Y9>\3474>\276Z\242\252=\305\003W>l\032\037\276\345\273\211\2740\205\247=\255\265\203\274n+4=\333\377k\276\317\247\375=\n\370<>\316\007\'\276\337\035 =\250\320\212<\314\376L\276\242y3>&\351b\276 \325\311=\200t\270\274S\n =&</\274d5\032\275\212\371A\276\022\227\265\274@\342g\275\254t\377\275\3029\014\275\t\3313>\353\331\005=\243\364l>\025\221Y>L\214\003>x\372T<tE/\276\335\340p\276\236c6\276J\302F\276\211\322}=\250\272\017\275E\367\032\276\367\317&;V2S\275\255\020\363<^\004\274=M1\255\274\035\242N>\330Uh>\027`\270\275C\240\341<\230Yw\276\275\353O\276\024JF9\353\033d>\316\032{>\361*\306=\311\021\003>h\023\262=\013\255\t>\326\307\003\276<d\315\275\222\351\222\270\322\325\275=CQ\001>c\371\'\276p\267\210\275\247\211\325=\"\243\036>\202\'\201\276\365\267\002>4\257\312=\204\353a>\337\205\327\275\324\304\336\275F\227v\276\001\2274>\0005\200=\257\233\001\276\224\367\331<\301\370M>\002\265\201\275dL\024\275\305\205\220=\260\333\027>>.\022>\357B\020\275Hb)\276L\305[=\226<\307=\016]\241=\313\0200\276\315\306N\275\262\253\221>\337\370\017>\273\3737>\005\034\203\276\361\370\024\276\362.&\276o-\025\276Kn\204><\331\010\275\342V[\275P8\326\274\022\365\247=\236\251\314\275\302\302>>\321\r\005>\017O?\276\331\205\213=\030O\307\275\334\205*>\364\3217>\031\177\214>\236\260$\274\326\360\224>\225\253\320=*\240\022>\363\244\004\276K\032\237\275\233\331*\276\225\r\030\276\021\0041\276\222\260\274\275,\020\300=\321\332O>\335\322\310\274i\2722>d\024\321=]\221\307<\'e]\273\236\231N\276\021\301\302=\227AN>\322\225{\275\322l\232\275\226\021\004\275\237]\377\275\020\235\227=@\005\310=Z\2526\276\204\r\350\275\367\270\335=S\216\204>Qw\310\275).\016\275}b\035>\244/\363<\301\351:>\356\003\373=\362\202\024>\347\0316>3\354\215\275N\255\243=\356\016\331=\340\341v>\005\316\337=\275\375q=\036]j>\244\315\200\276\0049l>\266\034v> 9q=ywZ>8\355.=7\\s\2755\244\322=\232f\240<$cq\275\000\032<:\0056\224>{\357\204\275\222Z\261\275B\\\031>B\371(<\177U9\276\031@_\276\357\030\221=\010<\033=\251\360\367\275\234\306\262=9\226\033>\223G\310\275\006\301:>M\347\037>\314#)\276F/\207>`\014/\275\275v\n>\222\370\013\276\010\324B>d\223V=\275\2108>.\357\313\275\233\253\025\276W\372\n>\317\357O=A\317\330\275kM\335\275\344 Y\275M\005@\275\365\326R=\366\213T=\267W\025\276B\000\026\276^\"\236>\302\354{>\207x<>\300\357V\273\003\335N\276\306)\366\275?vs>6\232S>\3023\203>M\327I>\202\370\222=\262\035\221\273\355f>>\300\'0;\001\276\345\275\0010\242\275\360\275-\275 K\225=V\301\343\275\201B-\2740\3772>#r\200\276v\026\306=\237*\206=g\350\315=\341\023\034\276\337$-\276\212\373\375=\2330\014>.\'/>\014H\220=\345\020\370=%\245\232\274.\2408>\306\324\246<\330bP>:\313\t<\254\3405\275\2578E\276\356*\327\2747\203h=h\216\305\275\034\340\205>@\310\202=C=1\276{7)>\002\001\242=\017L\374=G\004\226\275_\201\361\274\250\342=\276\260)>>\206{B\276OB\016>\004\204=\276*M\371=\226:\313=\201\276$<N\271\266=\342\354 =H\201\007>\256\014*\27534\333=~u\001\276\255\2049>.\031\236>|\0343\276\230\306\021>\302\330|\274J\307\035\276\215J\253<\234l\376<i\t<\276\376\t\036\276\303\357X>\244\206\207>\373\240\372\275\303@3>\024=\303\275\005=u\276p\203N>\374\336\036>\225.R>A\215D=\332\343\002>\002\022{\275\372\264\364\2751\301{>\215\\>>H\374\351=\350\021\222<\250\023\016\276\314\276\026\276\"\313\207=H1\235=\260\205\223\275N\021\'=\024a\212\276\201\321\354=\336\"\352\275\235\243\n\275J\330^\2769\356s>\263\305\032> \2239>2\372\272\274\373\300`\275\377@\220<\260\353\271<a\273\206\275\016\237K\276\177dG\275`\204\276\275\013\3724>N\331\204=\220?.\276\223\224\354=d\204;=\207t\216=(b<>\202=\374\274m_\\>>5t>>a\017>\362\374C<Br\224\274,\230\010>\254\3067=\312\327\335<\376@x\275\334\"\177\276\276\324\267\275h\221}>D\037 >\236xX=\331|\202\275\362\371\263=\324\2166\276(\017\205\275,W\033>3?\247=@F\177;\025\352F>\350\\B=|e\235<\333\0139=\350\275\227>\372\200@\276\276\037E<\034>`<\277a4\276N\210\005\276\227\221\221\273FO\361=\017\333\301\274\372L/\2763\261$>\001\357\223\274zY[=[~\303\275\210S\312=\262A\316\275\033_^>\331q\226=\224I\321<\204\336\020\274\264\235\">0\200\256\2752\006%\276\311B\207\275>z\237\275\022\331&\274\014!\374\275 \033g\275\036^1\276.\310<>\000iu>\336GH=\"\214\243\275}\001\226\275.\273G=CX\243=P\326P\276=bg\275\343\275\226=\336_\206=C4)\276\026\241\026>DB >\224!\212\275uH*\276\203f\301\275\274\267\361=@m^>\332\2402=\321\000\327\275\360\245\346=\300\315\315=\350\316\266\275\330\001\357=^\030>=\334Cs>1\370\321\275\001\251B\2752&\270=eA\023\276k\273\364=\356\273\334\275\'\332\254\275\251\032I>\013\0255\276zQ->)\031\376=\373\233\211\275|\212;\276#\313\247\275\344\314\245<o~g\274D\301\210=\362\316\226=\177~\017\276\363p+\276`\235S=\267<N\274\274\241\017\276\022\204\200\275\364\300\007\276Tg\331=g3\353=\322\"\332\275\201\010)>8\362k\276\223\245\"\276\337\001\366=\373U\326\275\276\214f>\371\211\222=,\372^<Dw]\275\214NN=\030\304H>\332\236I\276\226\016\327=\315ph=a\245\277=\317\276\t\275j\251\365=:\271\021\276\033\270\267\275l\370\025\275\317\236q>y\342\245=\224\264\312\275\251p\273<\230\025>\275\003\2143>S\267\003=x\316\215=\023[\006\275O\3139>\241@Q>\362\034K>\226\n.=\240\332,>f/]=\206\2413\276\351]R\276\"\303\026:84\272=S\371C>O\027\364=X7\207>\357>\215>^\307\301=\375\347\373=\334\352\307=Ql`\276\224\271\306<\205n\301\275\324\026\366=\026{\246=\3064\177>\327I\340=MRB>\376\302\352=mp\324\275S\257\027\275M\007u>\031;\375=\004\306\320\274BY\362\273\2339(>\354\300S\2760\266u>\267=\022\274\340eT\276\205|\004\2767\210z>A\343\n\276\332u\327\275\300)\311;xz!\276l%z=\362\276\220=\337R*\275\261\356\273=\236|\204=\270*\312=\344\222\307\275H\020s\275\223T\252\273\237T4>O\326\266=Jy\273=\"=\305\274N\203\034\275\010k\354\273\203\2358\276*|8>\237\270E\276\321\001\200\274\262\010K\276D\333\261=R\227\026\275\203\233&\276\224Q3>\353\342v>\337x\373\275\224b\265\275[|\017>\325\306\001\276!\301\025\276O\345B>z\033\334=\200\3479>\333\032\344=\000\274\003\276<\265\032\275\035\213\030=\036H\262<\013\274+=y\346l>\311\210\306\275\364g_\274\212\362\261=\020\030\367\275\206\345\361\275\t\361G\276\036P\t\276\245\036\233<\006\237g<\376b\022\275]\013\363\275\276KO\276\237\003\001>\317&k>\213\3515\276\361\235I>\243\354D\276\004&\234\274\003\240\003>\212]r>m\035\203=\325\307.>\367\333\"\275\350x@>\240;\264;\355\346\244=\032\252\277=\220xI>\330_\262\275\251\2308>\307\336K>\203ON\276W\016\033\276\274\317\030>t;\255=A\2403>\260H\016>Gpk>\031\3569\275\205\222\022>Mk\343\275\022c\021\276\326[9>h\254\021>\"\"\225<\352\217+\275_\230\261\275\032\031S=qrW\275\034w\\\274\327\271(\276\026~+\276\3747\241\2759\220f>T\330\315=\365K\345\275\251\201z=@e\027>\026Lr>i\374\227=p\270\370=\020\315\033\276\320\253N\275\367\343Y>\205\242U\276\250\020<=2\001\265=\323\022\202>\317\225\007\276\000\306z<\356\177\263\275\320\232\317=\0178\020>\"\276\306=-\230y>\177i;>r\375N>!\036C>]xf>zw,\276\242o^>\374\257\270:NYo>\002\372\205\275s\035\034;\341\374\220=\351\3534\2762[{\275"
      }
    }
  }
}
node {
  name: "dense_27/bias"
  op: "Const"
  attr {
    key: "dtype"
    value {
      type: DT_FLOAT
    }
  }
  attr {
    key: "value"
    value {
      tensor {
        dtype: DT_FLOAT
        tensor_shape {
          dim {
            size: 64
          }
        }
        tensor_content: "\000\000\000\000\035\353\362\273\226-\313<.<\031=\000\000\000\000\017i\"=B\323\303<\361\255\024\274G7\253\273\306\'\246\274\000\315\277\2744\253\200=\242u!<q\267\266<\031t\315<\230-0\274r\271\037\274\322\316\352\273\"\223)=\231\356?=\t+P=c\002\021\274\214\370\372:\'\250\206\274\362\t\007=:\352O=\332m\005=\311x\031=\000\000\000\000\356\215j\274\305\036\020\274\000\000\000\000{\023\202=3\n\017\274b:9<\333\3465=\211\344\004<\200\252\224<y\030[=\315F\020\274\000\000\000\000\245\023\014=,\224L=\377)s;\333C\326\272\000\000\000\000\000\000\000\000\277W==>\367\201<\310>\346;P+ \274\013\320\026<~\327\004<\023<\006<\004\264\025<\016z\306\271\036L\244<i\345\306\274.Z\346;\221#\221;A=\240<,\251\034=\0078\253\273~\003g="
      }
    }
  }
}
node {
  name: "dense_27/MatMul/ReadVariableOp"
  op: "Identity"
  input: "dense_27/kernel"
  attr {
    key: "T"
    value {
      type: DT_FLOAT
    }
  }
}
node {
  name: "dense_27/MatMul"
  op: "MatMul"
  input: "dense_26/Relu"
  input: "dense_27/MatMul/ReadVariableOp"
  attr {
    key: "T"
    value {
      type: DT_FLOAT
    }
  }
  attr {
    key: "transpose_a"
    value {
      b: false
    }
  }
  attr {
    key: "transpose_b"
    value {
      b: false
    }
  }
}
node {
  name: "dense_27/BiasAdd/ReadVariableOp"
  op: "Identity"
  input: "dense_27/bias"
  attr {
    key: "T"
    value {
      type: DT_FLOAT
    }
  }
}
node {
  name: "dense_27/BiasAdd"
  op: "BiasAdd"
  input: "dense_27/MatMul"
  input: "dense_27/BiasAdd/ReadVariableOp"
  attr {
    key: "T"
    value {
      type: DT_FLOAT
    }
  }
  attr {
    key: "data_format"
    value {
      s: "NHWC"
    }
  }
}
node {
  name: "dense_27/Relu"
  op: "Relu"
  input: "dense_27/BiasAdd"
  attr {
    key: "T"
    value {
      type: DT_FLOAT
    }
  }
}
node {
  name: "dense_28/kernel"
  op: "Const"
  attr {
    key: "dtype"
    value {
      type: DT_FLOAT
    }
  }
  attr {
    key: "value"
    value {
      tensor {
        dtype: DT_FLOAT
        tensor_shape {
          dim {
            size: 64
          }
          dim {
            size: 64
          }
        }
